{
  "version": "1.0",
  "truncation": null,
  "padding": null,
  "added_tokens": [
    {
      "id": 0,
      "content": "[PAD]",
      "single_word": false,
      "lstrip": false,
      "rstrip": false,
      "normalized": false,
      "special": true
    },
    {
      "id": 1,
      "content": "[UNK]",
      "single_word": false,
      "lstrip": false,
      "rstrip": false,
      "normalized": false,
      "special": true
    },
    {
      "id": 2,
      "content": "[CLS]",
      "single_word": false,
      "lstrip": false,
      "rstrip": false,
      "normalized": false,
      "special": true
    },
    {
      "id": 3,
      "content": "[SEP]",
      "single_word": false,
      "lstrip": false,
      "rstrip": false,
      "normalized": false,
      "special": true
    },
    {
      "id": 4,
      "content": "[MASK]",
      "single_word": false,
      "lstrip": false,
      "rstrip": false,
      "normalized": false,
      "special": true
    },
    {
      "id": 5,
      "content": "[TITLE]",
      "single_word": false,
      "lstrip": false,
      "rstrip": false,
      "normalized": false,
      "special": true
    },
    {
      "id": 6,
      "content": "[UNK0]",
      "single_word": false,
      "lstrip": false,
      "rstrip": false,
      "normalized": false,
      "special": true
    },
    {
      "id": 7,
      "content": "[UNK1]",
      "single_word": false,
      "lstrip": false,
      "rstrip": false,
      "normalized": false,
      "special": true
    },
    {
      "id": 8,
      "content": "[UNK3]",
      "single_word": false,
      "lstrip": false,
      "rstrip": false,
      "normalized": false,
      "special": true
    },
    {
      "id": 9,
      "content": "[UNK4]",
      "single_word": false,
      "lstrip": false,
      "rstrip": false,
      "normalized": false,
      "special": true
    },
    {
      "id": 10,
      "content": "[UNK5]",
      "single_word": false,
      "lstrip": false,
      "rstrip": false,
      "normalized": false,
      "special": true
    },
    {
      "id": 11,
      "content": "[UNK6]",
      "single_word": false,
      "lstrip": false,
      "rstrip": false,
      "normalized": false,
      "special": true
    },
    {
      "id": 12,
      "content": "[UNK7]",
      "single_word": false,
      "lstrip": false,
      "rstrip": false,
      "normalized": false,
      "special": true
    },
    {
      "id": 13,
      "content": "[UNK9]",
      "single_word": false,
      "lstrip": false,
      "rstrip": false,
      "normalized": false,
      "special": true
    }
  ],
  "normalizer": {
    "type": "BertNormalizer",
    "clean_text": true,
    "handle_chinese_chars": true,
    "strip_accents": false,
    "lowercase": false
  },
  "pre_tokenizer": {
    "type": "BertPreTokenizer"
  },
  "post_processor": null,
  "decoder": {
    "type": "WordPiece",
    "prefix": "##",
    "cleanup": true
  },
  "model": {
    "type": "WordPiece",
    "unk_token": "[UNK]",
    "continuing_subword_prefix": "##",
    "max_input_chars_per_word": 100,
    "vocab": {
      "[PAD]": 0,
      "[UNK]": 1,
      "[CLS]": 2,
      "[SEP]": 3,
      "[MASK]": 4,
      "[TITLE]": 5,
      "[UNK0]": 6,
      "[UNK1]": 7,
      "[UNK3]": 8,
      "[UNK4]": 9,
      "[UNK5]": 10,
      "[UNK6]": 11,
      "[UNK7]": 12,
      "[UNK9]": 13,
      "!": 14,
      ".": 15,
      "0": 16,
      "1": 17,
      "2": 18,
      "3": 19,
      "4": 20,
      "5": 21,
      "6": 22,
      "7": 23,
      "8": 24,
      "9": 25,
      "?": 26,
      "A": 27,
      "B": 28,
      "C": 29,
      "D": 30,
      "E": 31,
      "F": 32,
      "G": 33,
      "H": 34,
      "I": 35,
      "J": 36,
      "K": 37,
      "L": 38,
      "M": 39,
      "N": 40,
      "O": 41,
      "P": 42,
      "Q": 43,
      "R": 44,
      "S": 45,
      "T": 46,
      "U": 47,
      "V": 48,
      "W": 49,
      "X": 50,
      "Z": 51,
      "~": 52,
      "ᆫ": 53,
      "ᆯ": 54,
      "ᆷ": 55,
      "ᆸ": 56,
      "『": 57,
      "』": 58,
      "ㅇ": 59,
      "ㅋ": 60,
      "ㅎ": 61,
      "ㅜ": 62,
      "ㅠ": 63,
      "ㅡ": 64,
      "ㆍ": 65,
      "가": 66,
      "각": 67,
      "간": 68,
      "갈": 69,
      "감": 70,
      "갑": 71,
      "값": 72,
      "갓": 73,
      "강": 74,
      "갖": 75,
      "같": 76,
      "갚": 77,
      "개": 78,
      "객": 79,
      "갯": 80,
      "갱": 81,
      "거": 82,
      "걱": 83,
      "건": 84,
      "걷": 85,
      "걸": 86,
      "검": 87,
      "겁": 88,
      "것": 89,
      "겉": 90,
      "게": 91,
      "겐": 92,
      "겟": 93,
      "겠": 94,
      "겨": 95,
      "격": 96,
      "겪": 97,
      "견": 98,
      "결": 99,
      "겸": 100,
      "겹": 101,
      "경": 102,
      "계": 103,
      "고": 104,
      "곡": 105,
      "곤": 106,
      "곧": 107,
      "골": 108,
      "곰": 109,
      "곱": 110,
      "곳": 111,
      "공": 112,
      "과": 113,
      "곽": 114,
      "관": 115,
      "괄": 116,
      "광": 117,
      "괜": 118,
      "괴": 119,
      "굉": 120,
      "교": 121,
      "구": 122,
      "국": 123,
      "군": 124,
      "굳": 125,
      "굴": 126,
      "굽": 127,
      "궁": 128,
      "권": 129,
      "궐": 130,
      "궤": 131,
      "귀": 132,
      "규": 133,
      "균": 134,
      "그": 135,
      "극": 136,
      "근": 137,
      "글": 138,
      "금": 139,
      "급": 140,
      "긋": 141,
      "긍": 142,
      "기": 143,
      "긴": 144,
      "길": 145,
      "김": 146,
      "깃": 147,
      "깊": 148,
      "까": 149,
      "깐": 150,
      "깔": 151,
      "깜": 152,
      "깝": 153,
      "깨": 154,
      "꺼": 155,
      "껍": 156,
      "껏": 157,
      "께": 158,
      "꼬": 159,
      "꼭": 160,
      "꼴": 161,
      "꼼": 162,
      "꼽": 163,
      "꽃": 164,
      "꽤": 165,
      "꾸": 166,
      "꾼": 167,
      "꿈": 168,
      "뀌": 169,
      "끄": 170,
      "끈": 171,
      "끊": 172,
      "끌": 173,
      "끔": 174,
      "끗": 175,
      "끝": 176,
      "끼": 177,
      "낌": 178,
      "나": 179,
      "낙": 180,
      "낚": 181,
      "난": 182,
      "날": 183,
      "남": 184,
      "납": 185,
      "낫": 186,
      "낭": 187,
      "낮": 188,
      "낳": 189,
      "내": 190,
      "냄": 191,
      "냉": 192,
      "냐": 193,
      "냥": 194,
      "너": 195,
      "넉": 196,
      "널": 197,
      "넓": 198,
      "넘": 199,
      "넣": 200,
      "네": 201,
      "넷": 202,
      "녀": 203,
      "녁": 204,
      "년": 205,
      "념": 206,
      "녕": 207,
      "노": 208,
      "녹": 209,
      "논": 210,
      "놀": 211,
      "놈": 212,
      "농": 213,
      "높": 214,
      "놓": 215,
      "뇌": 216,
      "뇨": 217,
      "누": 218,
      "눈": 219,
      "눕": 220,
      "뉘": 221,
      "뉴": 222,
      "느": 223,
      "늑": 224,
      "는": 225,
      "늘": 226,
      "능": 227,
      "늦": 228,
      "늬": 229,
      "니": 230,
      "닉": 231,
      "닌": 232,
      "닐": 233,
      "님": 234,
      "닝": 235,
      "다": 236,
      "닥": 237,
      "단": 238,
      "닫": 239,
      "달": 240,
      "닭": 241,
      "담": 242,
      "답": 243,
      "닷": 244,
      "당": 245,
      "닿": 246,
      "대": 247,
      "댐": 248,
      "댓": 249,
      "더": 250,
      "덕": 251,
      "던": 252,
      "덜": 253,
      "덤": 254,
      "덥": 255,
      "덧": 256,
      "덩": 257,
      "덮": 258,
      "데": 259,
      "덴": 260,
      "델": 261,
      "도": 262,
      "독": 263,
      "돈": 264,
      "돋": 265,
      "돌": 266,
      "돕": 267,
      "동": 268,
      "돼": 269,
      "되": 270,
      "두": 271,
      "둑": 272,
      "둔": 273,
      "둘": 274,
      "둡": 275,
      "둥": 276,
      "뒤": 277,
      "뒷": 278,
      "듀": 279,
      "드": 280,
      "득": 281,
      "든": 282,
      "듣": 283,
      "들": 284,
      "듬": 285,
      "듭": 286,
      "듯": 287,
      "등": 288,
      "디": 289,
      "딜": 290,
      "딩": 291,
      "따": 292,
      "딱": 293,
      "딸": 294,
      "땀": 295,
      "땅": 296,
      "때": 297,
      "떠": 298,
      "떡": 299,
      "떤": 300,
      "떨": 301,
      "떳": 302,
      "떻": 303,
      "떼": 304,
      "또": 305,
      "똑": 306,
      "뚜": 307,
      "뚝": 308,
      "뚫": 309,
      "뛰": 310,
      "뜨": 311,
      "뜯": 312,
      "뜻": 313,
      "띄": 314,
      "띠": 315,
      "라": 316,
      "락": 317,
      "란": 318,
      "랄": 319,
      "람": 320,
      "랍": 321,
      "랑": 322,
      "랗": 323,
      "래": 324,
      "랙": 325,
      "랜": 326,
      "램": 327,
      "랩": 328,
      "랫": 329,
      "랭": 330,
      "략": 331,
      "량": 332,
      "러": 333,
      "럭": 334,
      "런": 335,
      "럴": 336,
      "럼": 337,
      "럽": 338,
      "렁": 339,
      "렇": 340,
      "레": 341,
      "렉": 342,
      "렌": 343,
      "려": 344,
      "력": 345,
      "련": 346,
      "렬": 347,
      "렴": 348,
      "렵": 349,
      "렷": 350,
      "령": 351,
      "례": 352,
      "로": 353,
      "록": 354,
      "론": 355,
      "롤": 356,
      "롬": 357,
      "롭": 358,
      "롯": 359,
      "롱": 360,
      "뢰": 361,
      "료": 362,
      "룡": 363,
      "루": 364,
      "룩": 365,
      "룸": 366,
      "룹": 367,
      "뤄": 368,
      "류": 369,
      "륙": 370,
      "륜": 371,
      "률": 372,
      "륭": 373,
      "르": 374,
      "른": 375,
      "를": 376,
      "름": 377,
      "릇": 378,
      "릉": 379,
      "리": 380,
      "릭": 381,
      "린": 382,
      "릴": 383,
      "림": 384,
      "립": 385,
      "릿": 386,
      "링": 387,
      "마": 388,
      "막": 389,
      "만": 390,
      "많": 391,
      "말": 392,
      "맘": 393,
      "맙": 394,
      "맛": 395,
      "망": 396,
      "맞": 397,
      "맡": 398,
      "매": 399,
      "맥": 400,
      "맨": 401,
      "맵": 402,
      "맹": 403,
      "맺": 404,
      "머": 405,
      "먹": 406,
      "먼": 407,
      "멀": 408,
      "멈": 409,
      "멋": 410,
      "멍": 411,
      "메": 412,
      "멕": 413,
      "멘": 414,
      "멜": 415,
      "멤": 416,
      "며": 417,
      "면": 418,
      "멸": 419,
      "명": 420,
      "몇": 421,
      "모": 422,
      "목": 423,
      "몫": 424,
      "몬": 425,
      "몰": 426,
      "몸": 427,
      "못": 428,
      "몽": 429,
      "묘": 430,
      "무": 431,
      "묵": 432,
      "묶": 433,
      "문": 434,
      "묻": 435,
      "물": 436,
      "뭄": 437,
      "뭉": 438,
      "뭐": 439,
      "뮤": 440,
      "므": 441,
      "미": 442,
      "민": 443,
      "믿": 444,
      "밀": 445,
      "밍": 446,
      "및": 447,
      "밑": 448,
      "바": 449,
      "박": 450,
      "밖": 451,
      "반": 452,
      "받": 453,
      "발": 454,
      "밝": 455,
      "밟": 456,
      "밤": 457,
      "밥": 458,
      "방": 459,
      "밭": 460,
      "배": 461,
      "백": 462,
      "밴": 463,
      "밸": 464,
      "뱃": 465,
      "뱅": 466,
      "버": 467,
      "벅": 468,
      "번": 469,
      "벌": 470,
      "범": 471,
      "법": 472,
      "벗": 473,
      "베": 474,
      "벤": 475,
      "벨": 476,
      "벼": 477,
      "벽": 478,
      "변": 479,
      "별": 480,
      "볍": 481,
      "병": 482,
      "보": 483,
      "복": 484,
      "본": 485,
      "볼": 486,
      "봄": 487,
      "봇": 488,
      "봉": 489,
      "부": 490,
      "북": 491,
      "분": 492,
      "불": 493,
      "붉": 494,
      "붓": 495,
      "붕": 496,
      "붙": 497,
      "뷔": 498,
      "뷰": 499,
      "브": 500,
      "블": 501,
      "비": 502,
      "빅": 503,
      "빈": 504,
      "빌": 505,
      "빗": 506,
      "빙": 507,
      "빚": 508,
      "빛": 509,
      "빠": 510,
      "빨": 511,
      "빵": 512,
      "빼": 513,
      "뻔": 514,
      "뼈": 515,
      "뽑": 516,
      "뿌": 517,
      "뿐": 518,
      "쁘": 519,
      "사": 520,
      "삭": 521,
      "산": 522,
      "살": 523,
      "삶": 524,
      "삼": 525,
      "삽": 526,
      "상": 527,
      "새": 528,
      "색": 529,
      "샌": 530,
      "샘": 531,
      "생": 532,
      "샤": 533,
      "서": 534,
      "석": 535,
      "섞": 536,
      "선": 537,
      "설": 538,
      "섬": 539,
      "섭": 540,
      "섯": 541,
      "성": 542,
      "세": 543,
      "센": 544,
      "셀": 545,
      "셈": 546,
      "셋": 547,
      "셔": 548,
      "션": 549,
      "셜": 550,
      "셰": 551,
      "소": 552,
      "속": 553,
      "손": 554,
      "솔": 555,
      "솜": 556,
      "송": 557,
      "쇄": 558,
      "쇠": 559,
      "쇼": 560,
      "숍": 561,
      "수": 562,
      "숙": 563,
      "순": 564,
      "술": 565,
      "숨": 566,
      "숫": 567,
      "숭": 568,
      "숲": 569,
      "쉬": 570,
      "쉼": 571,
      "쉽": 572,
      "슈": 573,
      "스": 574,
      "슨": 575,
      "슬": 576,
      "슴": 577,
      "습": 578,
      "슷": 579,
      "승": 580,
      "시": 581,
      "식": 582,
      "신": 583,
      "싣": 584,
      "실": 585,
      "싫": 586,
      "심": 587,
      "십": 588,
      "싱": 589,
      "싶": 590,
      "싸": 591,
      "싹": 592,
      "쌀": 593,
      "쌍": 594,
      "쌓": 595,
      "써": 596,
      "썩": 597,
      "쏘": 598,
      "쏟": 599,
      "쓰": 600,
      "쓸": 601,
      "씀": 602,
      "씨": 603,
      "씩": 604,
      "씬": 605,
      "씻": 606,
      "아": 607,
      "악": 608,
      "안": 609,
      "앉": 610,
      "않": 611,
      "알": 612,
      "앓": 613,
      "암": 614,
      "압": 615,
      "앗": 616,
      "앙": 617,
      "앞": 618,
      "애": 619,
      "액": 620,
      "앤": 621,
      "앨": 622,
      "앱": 623,
      "앵": 624,
      "야": 625,
      "약": 626,
      "얀": 627,
      "양": 628,
      "얘": 629,
      "어": 630,
      "억": 631,
      "언": 632,
      "얻": 633,
      "얼": 634,
      "엄": 635,
      "업": 636,
      "없": 637,
      "엇": 638,
      "었": 639,
      "엉": 640,
      "에": 641,
      "엑": 642,
      "엔": 643,
      "엘": 644,
      "엠": 645,
      "여": 646,
      "역": 647,
      "연": 648,
      "열": 649,
      "염": 650,
      "엽": 651,
      "였": 652,
      "영": 653,
      "옆": 654,
      "예": 655,
      "옛": 656,
      "오": 657,
      "옥": 658,
      "온": 659,
      "올": 660,
      "옮": 661,
      "옳": 662,
      "옷": 663,
      "옹": 664,
      "와": 665,
      "완": 666,
      "왕": 667,
      "왜": 668,
      "외": 669,
      "왼": 670,
      "요": 671,
      "욕": 672,
      "용": 673,
      "우": 674,
      "욱": 675,
      "운": 676,
      "울": 677,
      "움": 678,
      "웃": 679,
      "웅": 680,
      "워": 681,
      "원": 682,
      "월": 683,
      "웨": 684,
      "웹": 685,
      "위": 686,
      "윈": 687,
      "윌": 688,
      "윗": 689,
      "유": 690,
      "육": 691,
      "윤": 692,
      "율": 693,
      "융": 694,
      "으": 695,
      "은": 696,
      "을": 697,
      "음": 698,
      "읍": 699,
      "응": 700,
      "의": 701,
      "이": 702,
      "익": 703,
      "인": 704,
      "일": 705,
      "읽": 706,
      "잃": 707,
      "임": 708,
      "입": 709,
      "잇": 710,
      "있": 711,
      "잉": 712,
      "잊": 713,
      "잎": 714,
      "자": 715,
      "작": 716,
      "잔": 717,
      "잖": 718,
      "잘": 719,
      "잠": 720,
      "잡": 721,
      "장": 722,
      "잦": 723,
      "재": 724,
      "쟁": 725,
      "저": 726,
      "적": 727,
      "전": 728,
      "절": 729,
      "젊": 730,
      "점": 731,
      "접": 732,
      "젓": 733,
      "정": 734,
      "젖": 735,
      "제": 736,
      "젝": 737,
      "젠": 738,
      "젤": 739,
      "져": 740,
      "조": 741,
      "족": 742,
      "존": 743,
      "졸": 744,
      "좀": 745,
      "좁": 746,
      "종": 747,
      "좋": 748,
      "좌": 749,
      "죄": 750,
      "죠": 751,
      "주": 752,
      "죽": 753,
      "준": 754,
      "줄": 755,
      "중": 756,
      "쥐": 757,
      "즈": 758,
      "즉": 759,
      "즌": 760,
      "즐": 761,
      "즘": 762,
      "증": 763,
      "지": 764,
      "직": 765,
      "진": 766,
      "질": 767,
      "짐": 768,
      "집": 769,
      "짓": 770,
      "징": 771,
      "짖": 772,
      "짜": 773,
      "짝": 774,
      "짧": 775,
      "째": 776,
      "쩌": 777,
      "쩍": 778,
      "쪼": 779,
      "쪽": 780,
      "쫓": 781,
      "쯤": 782,
      "찌": 783,
      "찍": 784,
      "차": 785,
      "착": 786,
      "찬": 787,
      "찮": 788,
      "찰": 789,
      "참": 790,
      "창": 791,
      "찾": 792,
      "채": 793,
      "책": 794,
      "챔": 795,
      "챙": 796,
      "처": 797,
      "척": 798,
      "천": 799,
      "철": 800,
      "첨": 801,
      "첩": 802,
      "첫": 803,
      "청": 804,
      "체": 805,
      "쳐": 806,
      "초": 807,
      "촉": 808,
      "촌": 809,
      "촘": 810,
      "촛": 811,
      "총": 812,
      "촬": 813,
      "최": 814,
      "추": 815,
      "축": 816,
      "춘": 817,
      "출": 818,
      "춤": 819,
      "춥": 820,
      "충": 821,
      "취": 822,
      "츠": 823,
      "측": 824,
      "층": 825,
      "치": 826,
      "칙": 827,
      "친": 828,
      "칠": 829,
      "침": 830,
      "칭": 831,
      "카": 832,
      "칸": 833,
      "칼": 834,
      "캄": 835,
      "캐": 836,
      "캘": 837,
      "캠": 838,
      "커": 839,
      "컨": 840,
      "컬": 841,
      "컴": 842,
      "컵": 843,
      "컷": 844,
      "케": 845,
      "켓": 846,
      "켜": 847,
      "코": 848,
      "콘": 849,
      "콜": 850,
      "콤": 851,
      "콩": 852,
      "쾌": 853,
      "쿄": 854,
      "쿠": 855,
      "쿨": 856,
      "퀴": 857,
      "큐": 858,
      "크": 859,
      "큰": 860,
      "클": 861,
      "큼": 862,
      "키": 863,
      "킨": 864,
      "킬": 865,
      "킹": 866,
      "타": 867,
      "탁": 868,
      "탄": 869,
      "탈": 870,
      "탐": 871,
      "탑": 872,
      "탓": 873,
      "탕": 874,
      "태": 875,
      "택": 876,
      "탱": 877,
      "터": 878,
      "턱": 879,
      "턴": 880,
      "털": 881,
      "테": 882,
      "텍": 883,
      "텐": 884,
      "텔": 885,
      "템": 886,
      "토": 887,
      "톡": 888,
      "톤": 889,
      "톨": 890,
      "톱": 891,
      "통": 892,
      "퇴": 893,
      "투": 894,
      "튀": 895,
      "튜": 896,
      "트": 897,
      "특": 898,
      "튼": 899,
      "틀": 900,
      "틈": 901,
      "티": 902,
      "틱": 903,
      "틴": 904,
      "틸": 905,
      "팀": 906,
      "팅": 907,
      "파": 908,
      "판": 909,
      "팔": 910,
      "팝": 911,
      "팡": 912,
      "패": 913,
      "팩": 914,
      "팬": 915,
      "팽": 916,
      "퍼": 917,
      "펀": 918,
      "페": 919,
      "펙": 920,
      "펜": 921,
      "펠": 922,
      "펴": 923,
      "편": 924,
      "펼": 925,
      "평": 926,
      "폐": 927,
      "포": 928,
      "폭": 929,
      "폰": 930,
      "폴": 931,
      "폼": 932,
      "표": 933,
      "푸": 934,
      "푼": 935,
      "풀": 936,
      "품": 937,
      "풍": 938,
      "퓨": 939,
      "프": 940,
      "픈": 941,
      "플": 942,
      "픔": 943,
      "피": 944,
      "픽": 945,
      "핀": 946,
      "필": 947,
      "핑": 948,
      "하": 949,
      "학": 950,
      "한": 951,
      "할": 952,
      "함": 953,
      "합": 954,
      "항": 955,
      "해": 956,
      "핵": 957,
      "핸": 958,
      "햇": 959,
      "행": 960,
      "향": 961,
      "허": 962,
      "헌": 963,
      "험": 964,
      "헛": 965,
      "헤": 966,
      "헨": 967,
      "헬": 968,
      "혀": 969,
      "혁": 970,
      "현": 971,
      "혈": 972,
      "혐": 973,
      "협": 974,
      "형": 975,
      "혜": 976,
      "호": 977,
      "혹": 978,
      "혼": 979,
      "홀": 980,
      "홈": 981,
      "홍": 982,
      "화": 983,
      "확": 984,
      "환": 985,
      "활": 986,
      "황": 987,
      "회": 988,
      "획": 989,
      "횟": 990,
      "횡": 991,
      "효": 992,
      "후": 993,
      "훈": 994,
      "훌": 995,
      "훨": 996,
      "훼": 997,
      "휘": 998,
      "휠": 999,
      "휴": 1000,
      "흉": 1001,
      "흐": 1002,
      "흑": 1003,
      "흔": 1004,
      "흘": 1005,
      "흙": 1006,
      "흠": 1007,
      "흡": 1008,
      "흥": 1009,
      "희": 1010,
      "히": 1011,
      "힐": 1012,
      "힘": 1013,
      "##사": 1014,
      "##리": 1015,
      "##그": 1016,
      "##를": 1017,
      "##말": 1018,
      "##렉": 1019,
      "##페": 1020,
      "##츠": 1021,
      "##데": 1022,
      "##고": 1023,
      "##보": 1024,
      "##미": 1025,
      "##소": 1026,
      "##암": 1027,
      "##체": 1028,
      "##르": 1029,
      "##헤": 1030,
      "##골": 1031,
      "##시": 1032,
      "##스": 1033,
      "##떡": 1034,
      "##과": 1035,
      "##흡": 1036,
      "##곤": 1037,
      "##란": 1038,
      "##권": 1039,
      "##쥐": 1040,
      "##노": 1041,
      "##자": 1042,
      "##가": 1043,
      "##완": 1044,
      "##트": 1045,
      "##랄": 1046,
      "##경": 1047,
      "##덕": 1048,
      "##니": 1049,
      "##탕": 1050,
      "##성": 1051,
      "##투": 1052,
      "##로": 1053,
      "##수": 1054,
      "##주": 1055,
      "##원": 1056,
      "##예": 1057,
      "##까": 1058,
      "##테": 1059,
      "##나": 1060,
      "##염": 1061,
      "##룡": 1062,
      "##카": 1063,
      "##타": 1064,
      "##러": 1065,
      "##행": 1066,
      "##살": 1067,
      "##라": 1068,
      "##더": 1069,
      "##레": 1070,
      "##이": 1071,
      "##션": 1072,
      "##컵": 1073,
      "##에": 1074,
      "##도": 1075,
      "##비": 1076,
      "##디": 1077,
      "##커": 1078,
      "##임": 1079,
      "##태": 1080,
      "##화": 1081,
      "##균": 1082,
      "##턴": 1083,
      "##드": 1084,
      "##단": 1085,
      "##겐": 1086,
      "##하": 1087,
      "##동": 1088,
      "##계": 1089,
      "##아": 1090,
      "##의": 1091,
      "##으": 1092,
      "##7": 1093,
      "##3": 1094,
      "##6": 1095,
      "##우": 1096,
      "##2": 1097,
      "##5": 1098,
      "##1": 1099,
      "##차": 1100,
      "##브": 1101,
      "##점": 1102,
      "##개": 1103,
      "##바": 1104,
      "##즈": 1105,
      "##코": 1106,
      "##오": 1107,
      "##쿠": 1108,
      "##모": 1109,
      "##회": 1110,
      "##O": 1111,
      "##C": 1112,
      "##G": 1113,
      "##륜": 1114,
      "##민": 1115,
      "##추": 1116,
      "##기": 1117,
      "##익": 1118,
      "##중": 1119,
      "##버": 1120,
      "##네": 1121,
      "##틱": 1122,
      "##효": 1123,
      "##씨": 1124,
      "##양": 1125,
      "##패": 1126,
      "##락": 1127,
      "##지": 1128,
      "##항": 1129,
      "##어": 1130,
      "##상": 1131,
      "##귀": 1132,
      "##0": 1133,
      "##4": 1134,
      "##렬": 1135,
      "##규": 1136,
      "##촌": 1137,
      "##역": 1138,
      "##거": 1139,
      "##취": 1140,
      "##겨": 1141,
      "##두": 1142,
      "##셰": 1143,
      "##서": 1144,
      "##메": 1145,
      "##엇": 1146,
      "##해": 1147,
      "##웅": 1148,
      "##용": 1149,
      "##인": 1150,
      "##근": 1151,
      "##내": 1152,
      "##혈": 1153,
      "##먼": 1154,
      "##써": 1155,
      "##요": 1156,
      "##감": 1157,
      "##칸": 1158,
      "##천": 1159,
      "##마": 1160,
      "##림": 1161,
      "##8": 1162,
      "##휘": 1163,
      "##병": 1164,
      "##윤": 1165,
      "##공": 1166,
      "##A": 1167,
      "##N": 1168,
      "##E": 1169,
      "##L": 1170,
      "##루": 1171,
      "##링": 1172,
      "##팅": 1173,
      "##한": 1174,
      "##찬": 1175,
      "##호": 1176,
      "##후": 1177,
      "##되": 1178,
      "##각": 1179,
      "##검": 1180,
      "##색": 1181,
      "##언": 1182,
      "##번": 1183,
      "##클": 1184,
      "##티": 1185,
      "##늘": 1186,
      "##초": 1187,
      "##등": 1188,
      "##학": 1189,
      "##교": 1190,
      "##슬": 1191,
      "##는": 1192,
      "##치": 1193,
      "##제": 1194,
      "##현": 1195,
      "##I": 1196,
      "##준": 1197,
      "##필": 1198,
      "##북": 1199,
      "##팔": 1200,
      "##십": 1201,
      "##신": 1202,
      "##키": 1203,
      "##템": 1204,
      "##명": 1205,
      "##군": 1206,
      "##료": 1207,
      "##누": 1208,
      "##프": 1209,
      "##다": 1210,
      "##안": 1211,
      "##달": 1212,
      "##산": 1213,
      "##름": 1214,
      "##밀": 1215,
      "##토": 1216,
      "##던": 1217,
      "##찰": 1218,
      "##앗": 1219,
      "##백": 1220,
      "##종": 1221,
      "##승": 1222,
      "##난": 1223,
      "##속": 1224,
      "##많": 1225,
      "##게": 1226,
      "##파": 1227,
      "##부": 1228,
      "##펠": 1229,
      "##S": 1230,
      "##실": 1231,
      "##섬": 1232,
      "##없": 1233,
      "##춘": 1234,
      "##칙": 1235,
      "##푸": 1236,
      "##운": 1237,
      "##을": 1238,
      "##9": 1239,
      "##외": 1240,
      "##울": 1241,
      "##무": 1242,
      "##퍼": 1243,
      "##홀": 1244,
      "##은": 1245,
      "##V": 1246,
      "##크": 1247,
      "##남": 1248,
      "##움": 1249,
      "##럭": 1250,
      "##닉": 1251,
      "##휴": 1252,
      "##포": 1253,
      "##영": 1254,
      "##장": 1255,
      "##진": 1256,
      "##손": 1257,
      "##블": 1258,
      "##렌": 1259,
      "##발": 1260,
      "##목": 1261,
      "##청": 1262,
      "##정": 1263,
      "##래": 1264,
      "##놀": 1265,
      "##량": 1266,
      "##람": 1267,
      "##젠": 1268,
      "##풍": 1269,
      "##육": 1270,
      "##관": 1271,
      "##탈": 1272,
      "##럴": 1273,
      "##와": 1274,
      "##였": 1275,
      "##생": 1276,
      "##팬": 1277,
      "##위": 1278,
      "##왕": 1279,
      "##령": 1280,
      "##조": 1281,
      "##F": 1282,
      "##런": 1283,
      "##떼": 1284,
      "##D": 1285,
      "##P": 1286,
      "##국": 1287,
      "##릭": 1288,
      "##슨": 1289,
      "##만": 1290,
      "##늑": 1291,
      "##대": 1292,
      "##텐": 1293,
      "##연": 1294,
      "##례": 1295,
      "##콘": 1296,
      "##밸": 1297,
      "##었": 1298,
      "##피": 1299,
      "##닫": 1300,
      "##케": 1301,
      "##세": 1302,
      "##깃": 1303,
      "##논": 1304,
      "##업": 1305,
      "##려": 1306,
      "##문": 1307,
      "##볍": 1308,
      "##순": 1309,
      "##엔": 1310,
      "##유": 1311,
      "##벨": 1312,
      "##터": 1313,
      "##U": 1314,
      "##히": 1315,
      "##칼": 1316,
      "##베": 1317,
      "##매": 1318,
      "##톤": 1319,
      "##들": 1320,
      "##냐": 1321,
      "##봉": 1322,
      "##여": 1323,
      "##구": 1324,
      "##쉬": 1325,
      "##험": 1326,
      "##설": 1327,
      "##머": 1328,
      "##욱": 1329,
      "##B": 1330,
      "##J": 1331,
      "##뢰": 1332,
      "##죄": 1333,
      "##랭": 1334,
      "##선": 1335,
      "##H": 1336,
      "##술": 1337,
      "##있": 1338,
      "##냥": 1339,
      "##릉": 1340,
      "##꼬": 1341,
      "##채": 1342,
      "##격": 1343,
      "##복": 1344,
      "##처": 1345,
      "##녀": 1346,
      "##싸": 1347,
      "##좌": 1348,
      "##슴": 1349,
      "##볼": 1350,
      "##뱅": 1351,
      "##린": 1352,
      "##뭄": 1353,
      "##핀": 1354,
      "##망": 1355,
      "##퀴": 1356,
      "##플": 1357,
      "##금": 1358,
      "##폼": 1359,
      "##전": 1360,
      "##텍": 1361,
      "##른": 1362,
      "##알": 1363,
      "##불": 1364,
      "##막": 1365,
      "##칭": 1366,
      "##축": 1367,
      "##간": 1368,
      "##함": 1369,
      "##W": 1370,
      "##R": 1371,
      "##택": 1372,
      "##식": 1373,
      "##작": 1374,
      "##져": 1375,
      "##랫": 1376,
      "##튼": 1377,
      "##앙": 1378,
      "##딜": 1379,
      "##춤": 1380,
      "##본": 1381,
      "##재": 1382,
      "##족": 1383,
      "##폭": 1384,
      "##법": 1385,
      "##받": 1386,
      "##컴": 1387,
      "##셔": 1388,
      "##면": 1389,
      "##델": 1390,
      "##워": 1391,
      "##올": 1392,
      "##M": 1393,
      "##릴": 1394,
      "##존": 1395,
      "##텔": 1396,
      "##통": 1397,
      "##석": 1398,
      "##따": 1399,
      "##강": 1400,
      "##둔": 1401,
      "##판": 1402,
      "##별": 1403,
      "##느": 1404,
      "##길": 1405,
      "##뿐": 1406,
      "##곡": 1407,
      "##야": 1408,
      "##류": 1409,
      "##샤": 1410,
      "##앞": 1411,
      "##멜": 1412,
      "##센": 1413,
      "##립": 1414,
      "##틸": 1415,
      "##충": 1416,
      "##둘": 1417,
      "##탁": 1418,
      "##증": 1419,
      "##큐": 1420,
      "##환": 1421,
      "##허": 1422,
      "##희": 1423,
      "##싱": 1424,
      "##출": 1425,
      "##숙": 1426,
      "##표": 1427,
      "##흐": 1428,
      "##력": 1429,
      "##훼": 1430,
      "##론": 1431,
      "##탱": 1432,
      "##팩": 1433,
      "##셜": 1434,
      "##캄": 1435,
      "##분": 1436,
      "##저": 1437,
      "##온": 1438,
      "##엘": 1439,
      "##쇼": 1440,
      "##핑": 1441,
      "##물": 1442,
      "##얼": 1443,
      "##흥": 1444,
      "##닥": 1445,
      "##반": 1446,
      "##굽": 1447,
      "##솔": 1448,
      "##흉": 1449,
      "##벌": 1450,
      "##징": 1451,
      "##음": 1452,
      "##너": 1453,
      "##입": 1454,
      "##넷": 1455,
      "##빛": 1456,
      "##즘": 1457,
      "##련": 1458,
      "##슷": 1459,
      "##T": 1460,
      "##홍": 1461,
      "##딩": 1462,
      "##맛": 1463,
      "##줄": 1464,
      "##늬": 1465,
      "##끼": 1466,
      "##즌": 1467,
      "##쳐": 1468,
      "##랩": 1469,
      "##확": 1470,
      "##빗": 1471,
      "##혜": 1472,
      "##웃": 1473,
      "##흠": 1474,
      "##혼": 1475,
      "##벽": 1476,
      "##박": 1477,
      "##옥": 1478,
      "##잠": 1479,
      "##꽃": 1480,
      "##튜": 1481,
      "##컬": 1482,
      "##몽": 1483,
      "##일": 1484,
      "##록": 1485,
      "##듯": 1486,
      "##며": 1487,
      "##향": 1488,
      "##배": 1489,
      "##협": 1490,
      "##맥": 1491,
      "##셀": 1492,
      "##뷰": 1493,
      "##건": 1494,
      "##절": 1495,
      "##쓰": 1496,
      "##룸": 1497,
      "##객": 1498,
      "##평": 1499,
      "##득": 1500,
      "##독": 1501,
      "##합": 1502,
      "##웨": 1503,
      "##킨": 1504,
      "##년": 1505,
      "##긴": 1506,
      "##멘": 1507,
      "##철": 1508,
      "##닌": 1509,
      "##맡": 1510,
      "##빈": 1511,
      "##힘": 1512,
      "##랑": 1513,
      "##편": 1514,
      "##척": 1515,
      "##혁": 1516,
      "##빌": 1517,
      "##광": 1518,
      "##욕": 1519,
      "##방": 1520,
      "##랍": 1521,
      "##돈": 1522,
      "##슈": 1523,
      "##창": 1524,
      "##죠": 1525,
      "##꼴": 1526,
      "##폴": 1527,
      "##삼": 1528,
      "##훈": 1529,
      "##때": 1530,
      "##폰": 1531,
      "##읍": 1532,
      "##켓": 1533,
      "##걸": 1534,
      "##롱": 1535,
      "##탐": 1536,
      "##칠": 1537,
      "##짐": 1538,
      "##졸": 1539,
      "##녕": 1540,
      "##튀": 1541,
      "##김": 1542,
      "##빠": 1543,
      "##심": 1544,
      "##램": 1545,
      "##글": 1546,
      "##맨": 1547,
      "##총": 1548,
      "##애": 1549,
      "##닝": 1550,
      "##듀": 1551,
      "##쇄": 1552,
      "##턱": 1553,
      "##K": 1554,
      "##직": 1555,
      "##삭": 1556,
      "##날": 1557,
      "##렁": 1558,
      "##딸": 1559,
      "##촉": 1560,
      "##콩": 1561,
      "##뇌": 1562,
      "##측": 1563,
      "##먹": 1564,
      "##롭": 1565,
      "##므": 1566,
      "##릿": 1567,
      "##범": 1568,
      "##랜": 1569,
      "##책": 1570,
      "##둥": 1571,
      "##엽": 1572,
      "##X": 1573,
      "##룩": 1574,
      "##형": 1575,
      "##쿨": 1576,
      "##탄": 1577,
      "##틴": 1578,
      "##삽": 1579,
      "##ㅎ": 1580,
      "##납": 1581,
      "##념": 1582,
      "##몬": 1583,
      "##침": 1584,
      "##적": 1585,
      "##또": 1586,
      "##밥": 1587,
      "##잘": 1588,
      "##응": 1589,
      "##벤": 1590,
      "##팡": 1591,
      "##밭": 1592,
      "##괴": 1593,
      "##죽": 1594,
      "##뮤": 1595,
      "##펜": 1596,
      "##찌": 1597,
      "##압": 1598,
      "##Q": 1599,
      "##젓": 1600,
      "##뷔": 1601,
      "##특": 1602,
      "##당": 1603,
      "##략": 1604,
      "##견": 1605,
      "##얘": 1606,
      "##묘": 1607,
      "##궁": 1608,
      "##송": 1609,
      "##든": 1610,
      "##겟": 1611,
      "##캐": 1612,
      "##젤": 1613,
      "##헌": 1614,
      "##빨": 1615,
      "##첨": 1616,
      "##숫": 1617,
      "##집": 1618,
      "##질": 1619,
      "##급": 1620,
      "##층": 1621,
      "##옹": 1622,
      "##컷": 1623,
      "##덜": 1624,
      "##변": 1625,
      "##친": 1626,
      "##품": 1627,
      "##새": 1628,
      "##롤": 1629,
      "##젝": 1630,
      "##농": 1631,
      "##걷": 1632,
      "##넣": 1633,
      "##Z": 1634,
      "##콜": 1635,
      "##톱": 1636,
      "##혀": 1637,
      "##잔": 1638,
      "##께": 1639,
      "##꾸": 1640,
      "##섭": 1641,
      "##넘": 1642,
      "##렵": 1643,
      "##렇": 1644,
      "##엠": 1645,
      "##폐": 1646,
      "##큼": 1647,
      "##컨": 1648,
      "##헨": 1649,
      "##널": 1650,
      "##흙": 1651,
      "##황": 1652,
      "##룹": 1653,
      "##낭": 1654,
      "##괄": 1655,
      "##랙": 1656,
      "##럼": 1657,
      "##악": 1658,
      "##펀": 1659,
      "##킬": 1660,
      "##퓨": 1661,
      "##털": 1662,
      "##퇴": 1663,
      "##돌": 1664,
      "##멸": 1665,
      "##뇨": 1666,
      "##뛰": 1667,
      "##윈": 1668,
      "##빙": 1669,
      "##착": 1670,
      "##킹": 1671,
      "##옷": 1672,
      "##푼": 1673,
      "##극": 1674,
      "##밍": 1675,
      "##활": 1676,
      "##끄": 1677,
      "##율": 1678,
      "##멕": 1679,
      "##습": 1680,
      "##쿄": 1681,
      "##쪽": 1682,
      "##켜": 1683,
      "##궐": 1684,
      "##약": 1685,
      "##엄": 1686,
      "##굴": 1687,
      "##곳": 1688,
      "##잖": 1689,
      "##쯤": 1690,
      "##맘": 1691,
      "##펙": 1692,
      "##첩": 1693,
      "##톨": 1694,
      "##틀": 1695,
      "##돼": 1696,
      "##쌀": 1697,
      "##쪼": 1698,
      "##찍": 1699,
      "##쟁": 1700,
      "##힐": 1701,
      "##것": 1702,
      "##액": 1703,
      "##쌓": 1704,
      "##월": 1705,
      "##엑": 1706,
      "##덤": 1707,
      "##풀": 1708,
      "##갈": 1709,
      "##숭": 1710,
      "##열": 1711,
      "##째": 1712,
      "##롬": 1713,
      "##몰": 1714,
      "##맹": 1715,
      "##껏": 1716,
      "##앤": 1717,
      "##럽": 1718,
      "##놈": 1719,
      "##쌍": 1720,
      "##할": 1721,
      "##핵": 1722,
      "##눕": 1723,
      "##핸": 1724,
      "##콤": 1725,
      "##ㅡ": 1726,
      "##봇": 1727,
      "##몸": 1728,
      "##픽": 1729,
      "##싶": 1730,
      "##ㅋ": 1731,
      "##겠": 1732,
      "##덩": 1733,
      "##륙": 1734,
      "##웹": 1735,
      "##팽": 1736,
      "##즐": 1737,
      "##곱": 1738,
      "##즉": 1739,
      "##융": 1740,
      "##최": 1741,
      "##담": 1742,
      "##탑": 1743,
      "##결": 1744,
      "##덴": 1745,
      "##끈": 1746,
      "##잇": 1747,
      "##톡": 1748,
      "##짓": 1749,
      "##짜": 1750,
      "##멋": 1751,
      "##뼈": 1752,
      "##빵": 1753,
      "##렴": 1754,
      "##접": 1755,
      "##쁘": 1756,
      "##쉽": 1757,
      "##붙": 1758,
      "##릇": 1759,
      "##셋": 1760,
      "##찮": 1761,
      "##햇": 1762,
      "##떤": 1763,
      "##흘": 1764,
      "##깝": 1765,
      "##짖": 1766,
      "##눈": 1767,
      "##잡": 1768,
      "##벗": 1769,
      "##펼": 1770,
      "##딱": 1771,
      "##띠": 1772,
      "##얀": 1773,
      "##갑": 1774,
      "##굉": 1775,
      "##흔": 1776,
      "##큰": 1777,
      "##엉": 1778,
      "##맵": 1779,
      "##닷": 1780,
      "##잉": 1781,
      "##밴": 1782,
      "##뱃": 1783,
      "##뉘": 1784,
      "##걱": 1785,
      "##샘": 1786,
      "##뚝": 1787,
      "##붕": 1788,
      "##ㅇ": 1789,
      "##뒤": 1790,
      "##긍": 1791,
      "##씬": 1792,
      "##앱": 1793,
      "##답": 1794,
      "##쇠": 1795,
      "##틈": 1796,
      "##꿈": 1797,
      "##곽": 1798,
      "##뉴": 1799,
      "##잎": 1800,
      "##쩍": 1801,
      "##궤": 1802,
      "##짝": 1803,
      "##뭉": 1804,
      "##떻": 1805,
      "##녹": 1806,
      "##삶": 1807,
      "##땅": 1808,
      "##밤": 1809,
      "##닐": 1810,
      "##혹": 1811,
      "##팀": 1812,
      "##윌": 1813,
      "##숨": 1814,
      "##숲": 1815,
      "##떠": 1816,
      "##앵": 1817,
      "##참": 1818,
      "##떨": 1819,
      "##률": 1820,
      "##값": 1821,
      "##붓": 1822,
      "##뚜": 1823,
      "##능": 1824,
      "##멍": 1825,
      "##댐": 1826,
      "##뿌": 1827,
      "##끝": 1828,
      "##섯": 1829,
      "##겹": 1830,
      "##뜻": 1831,
      "##샌": 1832,
      "##깔": 1833,
      "##덥": 1834,
      "##빼": 1835,
      "##않": 1836,
      "##꾼": 1837,
      "##쾌": 1838,
      "##꺼": 1839,
      "##낙": 1840,
      "##ㅜ": 1841,
      "##씀": 1842,
      "##꼭": 1843,
      "##곰": 1844,
      "##뜨": 1845,
      "##듬": 1846,
      "##덮": 1847,
      "##님": 1848,
      "##획": 1849,
      "##겸": 1850,
      "##녁": 1851,
      "##빚": 1852,
      "##앓": 1853,
      "##댓": 1854,
      "##옆": 1855,
      "##냉": 1856,
      "##못": 1857,
      "##혐": 1858,
      "##헬": 1859,
      "##픈": 1860,
      "##쏘": 1861,
      "##떳": 1862,
      "##빅": 1863,
      "##뀌": 1864,
      "##홈": 1865,
      "##갱": 1866,
      "##돕": 1867,
      "##촬": 1868,
      "##렷": 1869,
      "##갓": 1870,
      "##륭": 1871,
      "##낫": 1872,
      "##뭐": 1873,
      "##맞": 1874,
      "##벅": 1875,
      "##봄": 1876,
      "##묵": 1877,
      "##깐": 1878,
      "##밟": 1879,
      "##놓": 1880,
      "##멀": 1881,
      "##숍": 1882,
      "##좀": 1883,
      "##캠": 1884,
      "##높": 1885,
      "##둑": 1886,
      "##깨": 1887,
      "##셈": 1888,
      "##솜": 1889,
      "##쓸": 1890,
      "##밖": 1891,
      "##윗": 1892,
      "##껍": 1893,
      "##긋": 1894,
      "##캘": 1895,
      "##끌": 1896,
      "##챔": 1897,
      "##멤": 1898,
      "##끔": 1899,
      "##펴": 1900,
      "##촘": 1901,
      "##끗": 1902,
      "##왜": 1903,
      "##듣": 1904,
      "##갯": 1905,
      "##갖": 1906,
      "##억": 1907,
      "##닭": 1908,
      "##휠": 1909,
      "##픔": 1910,
      "##갚": 1911,
      "##ㅠ": 1912,
      "##넓": 1913,
      "##앉": 1914,
      "##뽑": 1915,
      "##듭": 1916,
      "##낚": 1917,
      "##벼": 1918,
      "##붉": 1919,
      "##굳": 1920,
      "##똑": 1921,
      "##썩": 1922,
      "##찾": 1923,
      "##냄": 1924,
      "##띄": 1925,
      "##겁": 1926,
      "##깜": 1927,
      "##얻": 1928,
      "##낌": 1929,
      "##챙": 1930,
      "##늦": 1931,
      "##뤄": 1932,
      "##흑": 1933,
      "##싣": 1934,
      "##돋": 1935,
      "##맺": 1936,
      "##롯": 1937,
      "##곧": 1938,
      "##뻔": 1939,
      "##탓": 1940,
      "##밝": 1941,
      "##옮": 1942,
      "##뒷": 1943,
      "##첫": 1944,
      "##ㆍ": 1945,
      "##씩": 1946,
      "##덧": 1947,
      "##랗": 1948,
      "##땀": 1949,
      "##쩌": 1950,
      "##좁": 1951,
      "##싹": 1952,
      "##넉": 1953,
      "##훌": 1954,
      "##낮": 1955,
      "##횡": 1956,
      "##멈": 1957,
      "##앨": 1958,
      "##왼": 1959,
      "##싫": 1960,
      "##팝": 1961,
      "##밑": 1962,
      "##좋": 1963,
      "##끊": 1964,
      "##깊": 1965,
      "##둡": 1966,
      "##섞": 1967,
      "##닿": 1968,
      "##묻": 1969,
      "##같": 1970,
      "##잦": 1971,
      "##춥": 1972,
      "##쉼": 1973,
      "##씻": 1974,
      "##촛": 1975,
      "##겉": 1976,
      "##꼼": 1977,
      "##짧": 1978,
      "##젖": 1979,
      "##뚫": 1980,
      "##횟": 1981,
      "##맙": 1982,
      "##낳": 1983,
      "##및": 1984,
      "##헛": 1985,
      "##뜯": 1986,
      "##읽": 1987,
      "##잃": 1988,
      "##몇": 1989,
      "##믿": 1990,
      "##묶": 1991,
      "##괜": 1992,
      "##꼽": 1993,
      "##훨": 1994,
      "##옛": 1995,
      "##잊": 1996,
      "##쫓": 1997,
      "##몫": 1998,
      "##겪": 1999,
      "##옳": 2000,
      "##니다": 2001,
      "으로": 2002,
      "ᆸ니다": 2003,
      "에서": 2004,
      "습니다": 2005,
      "ᆫ다": 2006,
      "어서": 2007,
      "위하": 2008,
      "어야": 2009,
      "대하": 2010,
      "국민": 2011,
      "20": 2012,
      "에게": 2013,
      "아니": 2014,
      "까지": 2015,
      "다고": 2016,
      "사람": 2017,
      "지원": 2018,
      "정부": 2019,
      "우리": 2020,
      "라고": 2021,
      "생각": 2022,
      "부터": 2023,
      "지만": 2024,
      "사업": 2025,
      "19": 2026,
      "도록": 2027,
      "통하": 2028,
      "는데": 2029,
      "##00": 2030,
      "지역": 2031,
      "면서": 2032,
      "##니까": 2033,
      "다는": 2034,
      "기업": 2035,
      "한국": 2036,
      "국가": 2037,
      "라는": 2038,
      "문제": 2039,
      "교육": 2040,
      "사회": 2041,
      "201": 2042,
      "나라": 2043,
      "따르": 2044,
      "시간": 2045,
      "경우": 2046,
      "안전": 2047,
      "때문": 2048,
      "아이": 2049,
      "ᆫ다고": 2050,
      "계획": 2051,
      "##통령": 2052,
      "기관": 2053,
      "대통령": 2054,
      "으며": 2055,
      "정책": 2056,
      "관리": 2057,
      "또한": 2058,
      "관련": 2059,
      "그러": 2060,
      "보다": 2061,
      "대한": 2062,
      "그리": 2063,
      "이번": 2064,
      "시키": 2065,
      "10": 2066,
      "지금": 2067,
      "필요": 2068,
      "가지": 2069,
      "어도": 2070,
      "사용": 2071,
      "함께": 2072,
      "문화": 2073,
      "가능": 2074,
      "##민국": 2075,
      "ᆸ니까": 2076,
      "대한민국": 2077,
      "경제": 2078,
      "기술": 2079,
      "이나": 2080,
      "상황": 2081,
      "운영": 2082,
      "피해": 2083,
      "이상": 2084,
      "으면": 2085,
      "현재": 2086,
      "정보": 2087,
      "##무원": 2088,
      "그렇": 2089,
      "##어지": 2090,
      "지나": 2091,
      "추진": 2092,
      "그리고": 2093,
      "보이": 2094,
      "대상": 2095,
      "공무원": 2096,
      "산업": 2097,
      "이런": 2098,
      "발생": 2099,
      "이용": 2100,
      "만들": 2101,
      "행정": 2102,
      "너무": 2103,
      "그런": 2104,
      "개발": 2105,
      "##어나": 2106,
      "환경": 2107,
      "밝히": 2108,
      "제도": 2109,
      "경찰": 2110,
      "어요": 2111,
      "ᆫ다는": 2112,
      "못하": 2113,
      "진행": 2114,
      "시설": 2115,
      "모든": 2116,
      "시작": 2117,
      "세요": 2118,
      "다른": 2119,
      "조사": 2120,
      "강화": 2121,
      "나오": 2122,
      "일반": 2123,
      "예정": 2124,
      "여성": 2125,
      "참여": 2126,
      "##지만": 2127,
      "학교": 2128,
      "개선": 2129,
      "내용": 2130,
      "현장": 2131,
      "ᆫ가": 2132,
      "##비스": 2133,
      "나가": 2134,
      "전문": 2135,
      "관계": 2136,
      "생활": 2137,
      "연구": 2138,
      "서비스": 2139,
      "위원": 2140,
      "세계": 2141,
      "이후": 2142,
      "자신": 2143,
      "하지만": 2144,
      "확대": 2145,
      "서울": 2146,
      "가장": 2147,
      "하나": 2148,
      "마련": 2149,
      "거나": 2150,
      "다양": 2151,
      "학생": 2152,
      "12": 2153,
      "결과": 2154,
      "확인": 2155,
      "프로": 2156,
      "분야": 2157,
      "다시": 2158,
      "모르": 2159,
      "평가": 2160,
      "시장": 2161,
      "모두": 2162,
      "정도": 2163,
      "활동": 2164,
      "는지": 2165,
      "특히": 2166,
      "인하": 2167,
      "많이": 2168,
      "제공": 2169,
      "대학": 2170,
      "가족": 2171,
      "ᆫ데": 2172,
      "여러": 2173,
      "활용": 2174,
      "없이": 2175,
      "정말": 2176,
      "이유": 2177,
      "동안": 2178,
      "11": 2179,
      "드리": 2180,
      "사실": 2181,
      "센터": 2182,
      "기준": 2183,
      "ᆫ지": 2184,
      "으나": 2185,
      "과정": 2186,
      "그러나": 2187,
      "기간": 2188,
      "교통": 2189,
      "실시": 2190,
      "이렇": 2191,
      "시행": 2192,
      "미국": 2193,
      "사건": 2194,
      "바라": 2195,
      "신청": 2196,
      "경기": 2197,
      "근로": 2198,
      "처럼": 2199,
      "청년": 2200,
      "보호": 2201,
      "고용": 2202,
      "누구": 2203,
      "이것": 2204,
      "올해": 2205,
      "대표": 2206,
      "사고": 2207,
      "##자리": 2208,
      "##대로": 2209,
      "협력": 2210,
      "들어": 2211,
      "주택": 2212,
      "어렵": 2213,
      "일본": 2214,
      "이러": 2215,
      "개인": 2216,
      "ᆯ까": 2217,
      "저희": 2218,
      "투자": 2219,
      "노동": 2220,
      "200": 2221,
      "발전": 2222,
      "사이": 2223,
      "회사": 2224,
      "는다": 2225,
      "의료": 2226,
      "공공": 2227,
      "중요": 2228,
      "##로나": 2229,
      "노력": 2230,
      "병원": 2231,
      "국내": 2232,
      "중국": 2233,
      "도시": 2234,
      "지방": 2235,
      "범죄": 2236,
      "북한": 2237,
      "어떻": 2238,
      "코로나": 2239,
      "행사": 2240,
      "이루": 2241,
      "장관": 2242,
      "##아가": 2243,
      "업무": 2244,
      "장애": 2245,
      "방안": 2246,
      "보험": 2247,
      "18": 2248,
      "신고": 2249,
      "복지": 2250,
      "일자리": 2251,
      "청원": 2252,
      "15": 2253,
      "설명": 2254,
      "해결": 2255,
      "다가": 2256,
      "아무": 2257,
      "조치": 2258,
      "30": 2259,
      "직접": 2260,
      "대책": 2261,
      "부분": 2262,
      "국제": 2263,
      "회의": 2264,
      "계속": 2265,
      "지속": 2266,
      "##학교": 2267,
      "의하": 2268,
      "같이": 2269,
      "올리": 2270,
      "방법": 2271,
      "위원회": 2272,
      "설치": 2273,
      "주민": 2274,
      "ᆫ다면": 2275,
      "점검": 2276,
      "##스트": 2277,
      "다면": 2278,
      "그래": 2279,
      "대응": 2280,
      "근무": 2281,
      "단체": 2282,
      "적극": 2283,
      "선정": 2284,
      "전국": 2285,
      "당하": 2286,
      "그런데": 2287,
      "발표": 2288,
      "책임": 2289,
      "또는": 2290,
      "다음": 2291,
      "포함": 2292,
      "국회": 2293,
      "건강": 2294,
      "중심": 2295,
      "바로": 2296,
      "습니까": 2297,
      "중소": 2298,
      "청소": 2299,
      "방문": 2300,
      "마음": 2301,
      "관광": 2302,
      "최근": 2303,
      "이제": 2304,
      "해당": 2305,
      "시스": 2306,
      "미래": 2307,
      "다르": 2308,
      "새롭": 2309,
      "라도": 2310,
      "주요": 2311,
      "##부터": 2312,
      "시스템": 2313,
      "증가": 2314,
      "적용": 2315,
      "현실": 2316,
      "체계": 2317,
      "추가": 2318,
      "사례": 2319,
      "그것": 2320,
      "지급": 2321,
      "예방": 2322,
      "부모": 2323,
      "계약": 2324,
      "보내": 2325,
      "처음": 2326,
      "다니": 2327,
      "일부": 2328,
      "문재": 2329,
      "혁신": 2330,
      "규모": 2331,
      "문재인": 2332,
      "준비": 2333,
      "개정": 2334,
      "불법": 2335,
      "구성": 2336,
      "선수": 2337,
      "사항": 2338,
      "프로그": 2339,
      "의무": 2340,
      "만드": 2341,
      "이해": 2342,
      "정치": 2343,
      "##기업": 2344,
      "행위": 2345,
      "취업": 2346,
      "개최": 2347,
      "당시": 2348,
      "국토": 2349,
      "힘들": 2350,
      "위치": 2351,
      "결정": 2352,
      "얼마": 2353,
      "검사": 2354,
      "업체": 2355,
      "기대": 2356,
      "공동": 2357,
      "상태": 2358,
      "버리": 2359,
      "해외": 2360,
      "프로그램": 2361,
      "열리": 2362,
      "알리": 2363,
      "소득": 2364,
      "규제": 2365,
      "##시아": 2366,
      "자리": 2367,
      "특별": 2368,
      "건설": 2369,
      "##000": 2370,
      "피해자": 2371,
      "매우": 2372,
      "세금": 2373,
      "이미": 2374,
      "시대": 2375,
      "처리": 2376,
      "기사": 2377,
      "성장": 2378,
      "더욱": 2379,
      "금융": 2380,
      "물론": 2381,
      "청소년": 2382,
      "처벌": 2383,
      "거래": 2384,
      "##주의": 2385,
      "구조": 2386,
      "여기": 2387,
      "##자체": 2388,
      "안녕": 2389,
      "이야": 2390,
      "외국": 2391,
      "지자체": 2392,
      "수준": 2393,
      "그래서": 2394,
      "환자": 2395,
      "직원": 2396,
      "관심": 2397,
      "어린": 2398,
      "모습": 2399,
      "나요": 2400,
      "자유": 2401,
      "시험": 2402,
      "차량": 2403,
      "방역": 2404,
      "##나라": 2405,
      "우수": 2406,
      "개월": 2407,
      "느끼": 2408,
      "생산": 2409,
      "치료": 2410,
      "소비": 2411,
      "우선": 2412,
      "구축": 2413,
      "지난": 2414,
      "도입": 2415,
      "##리아": 2416,
      "시민": 2417,
      "지키": 2418,
      "나타": 2419,
      "공정": 2420,
      "부담": 2421,
      "어린이": 2422,
      "어떤": 2423,
      "한편": 2424,
      "안정": 2425,
      "자기": 2426,
      "조직": 2427,
      "하루": 2428,
      "훈련": 2429,
      "역사": 2430,
      "자동": 2431,
      "임금": 2432,
      "의견": 2433,
      "효과": 2434,
      "중앙": 2435,
      "가정": 2436,
      "기존": 2437,
      "이야기": 2438,
      "을까": 2439,
      "더라": 2440,
      "위험": 2441,
      "ᆸ시": 2442,
      "네요": 2443,
      "17": 2444,
      "유지": 2445,
      "체험": 2446,
      "대부": 2447,
      "변화": 2448,
      "생기": 2449,
      "기록": 2450,
      "잘못": 2451,
      "16": 2452,
      "##림픽": 2453,
      "근로자": 2454,
      "운전": 2455,
      "방식": 2456,
      "정신": 2457,
      "단계": 2458,
      "전화": 2459,
      "전문가": 2460,
      "인정": 2461,
      "##이터": 2462,
      "민간": 2463,
      "만큼": 2464,
      "창업": 2465,
      "정상": 2466,
      "##라인": 2467,
      "등록": 2468,
      "기본": 2469,
      "13": 2470,
      "대회": 2471,
      "민원": 2472,
      "보건": 2473,
      "거리": 2474,
      "먼저": 2475,
      "장애인": 2476,
      "의원": 2477,
      "요구": 2478,
      "14": 2479,
      "아직": 2480,
      "도움": 2481,
      "들어가": 2482,
      "국립": 2483,
      "담당": 2484,
      "인력": 2485,
      "로서": 2486,
      "제품": 2487,
      "대부분": 2488,
      "ᆯ까요": 2489,
      "교사": 2490,
      "고자": 2491,
      "높이": 2492,
      "제한": 2493,
      "활성": 2494,
      "기반": 2495,
      "비용": 2496,
      "조성": 2497,
      "공급": 2498,
      "예산": 2499,
      "도로": 2500,
      "기회": 2501,
      "가격": 2502,
      "자료": 2503,
      "일어나": 2504,
      "지정": 2505,
      "부처": 2506,
      "본인": 2507,
      "영향": 2508,
      "아파": 2509,
      "상담": 2510,
      "고려": 2511,
      "부족": 2512,
      "운동": 2513,
      "판매": 2514,
      "공간": 2515,
      "여행": 2516,
      "채용": 2517,
      "오늘": 2518,
      "확산": 2519,
      "인권": 2520,
      "밖에": 2521,
      "아파트": 2522,
      "어느": 2523,
      "##너지": 2524,
      "올림픽": 2525,
      "스럽": 2526,
      "대출": 2527,
      "수사": 2528,
      "공개": 2529,
      "중소기업": 2530,
      "주변": 2531,
      "요청": 2532,
      "최대": 2533,
      "해양": 2534,
      "조금": 2535,
      "제대로": 2536,
      "방송": 2537,
      "거치": 2538,
      "인터": 2539,
      "아울": 2540,
      "나타나": 2541,
      "무엇": 2542,
      "감사": 2543,
      "경쟁": 2544,
      "아울러": 2545,
      "인간": 2546,
      "감염": 2547,
      "실제": 2548,
      "협의": 2549,
      "부동": 2550,
      "역할": 2551,
      "이전": 2552,
      "자체": 2553,
      "의미": 2554,
      "임대": 2555,
      "과학": 2556,
      "능력": 2557,
      "다며": 2558,
      "##마트": 2559,
      "100": 2560,
      "확보": 2561,
      "려고": 2562,
      "항공": 2563,
      "부동산": 2564,
      "민주": 2565,
      "분석": 2566,
      "##머니": 2567,
      "건축": 2568,
      "기능": 2569,
      "성과": 2570,
      "마다": 2571,
      "지요": 2572,
      "공사": 2573,
      "선택": 2574,
      "조정": 2575,
      "으로써": 2576,
      "라면": 2577,
      "가치": 2578,
      "성공": 2579,
      "심사": 2580,
      "전환": 2581,
      "자격": 2582,
      "입장": 2583,
      "참석": 2584,
      "전쟁": 2585,
      "202": 2586,
      "존재": 2587,
      "관하": 2588,
      "수출": 2589,
      "으로서": 2590,
      "오르": 2591,
      "상대": 2592,
      "자치": 2593,
      "자원": 2594,
      "서민": 2595,
      "스마트": 2596,
      "##버지": 2597,
      "이루어지": 2598,
      "의사": 2599,
      "25": 2600,
      "께서": 2601,
      "우리나라": 2602,
      "규정": 2603,
      "주장": 2604,
      "조선": 2605,
      "집중": 2606,
      "홍보": 2607,
      "논의": 2608,
      "마을": 2609,
      "평화": 2610,
      "기에": 2611,
      "미세": 2612,
      "수행": 2613,
      "결국": 2614,
      "종합": 2615,
      "지난해": 2616,
      "이름": 2617,
      "희망": 2618,
      "혜택": 2619,
      "그냥": 2620,
      "제작": 2621,
      "24": 2622,
      "이동": 2623,
      "만나": 2624,
      "재산": 2625,
      "배우": 2626,
      "대비": 2627,
      "경험": 2628,
      "여자": 2629,
      "절차": 2630,
      "말씀": 2631,
      "어디": 2632,
      "직장": 2633,
      "반대": 2634,
      "목적": 2635,
      "로부터": 2636,
      "수도": 2637,
      "나이": 2638,
      "온라인": 2639,
      "요즘": 2640,
      "자동차": 2641,
      "199": 2642,
      "전시": 2643,
      "강조": 2644,
      "남성": 2645,
      "최소": 2646,
      "보장": 2647,
      "##와대": 2648,
      "청와대": 2649,
      "으니": 2650,
      "##등학교": 2651,
      "자금": 2652,
      "사전": 2653,
      "발견": 2654,
      "폐지": 2655,
      "수요": 2656,
      "판단": 2657,
      "행동": 2658,
      "공유": 2659,
      "전체": 2660,
      "유치": 2661,
      "2018": 2662,
      "가입": 2663,
      "접종": 2664,
      "과제": 2665,
      "반영": 2666,
      "사진": 2667,
      "부패": 2668,
      "최저": 2669,
      "키우": 2670,
      "방향": 2671,
      "선거": 2672,
      "친구": 2673,
      "내리": 2674,
      "시기": 2675,
      "전기": 2676,
      "전통": 2677,
      "당연": 2678,
      "뉴스": 2679,
      "안내": 2680,
      "##스크": 2681,
      "버스": 2682,
      "지도": 2683,
      "아프": 2684,
      "집단": 2685,
      "불편": 2686,
      "자연": 2687,
      "감독": 2688,
      "건물": 2689,
      "검토": 2690,
      "인사": 2691,
      "금지": 2692,
      "연계": 2693,
      "급여": 2694,
      "먼지": 2695,
      "참가": 2696,
      "에너지": 2697,
      "언론": 2698,
      "남자": 2699,
      "으시": 2700,
      "사망": 2701,
      "부산": 2702,
      "줄이": 2703,
      "거의": 2704,
      "소리": 2705,
      "##레이": 2706,
      "통신": 2707,
      "외국인": 2708,
      "상품": 2709,
      "공연": 2710,
      "인식": 2711,
      "기획": 2712,
      "제출": 2713,
      "누리": 2714,
      "통합": 2715,
      "##아오": 2716,
      "이익": 2717,
      "##려움": 2718,
      "개혁": 2719,
      "방지": 2720,
      "아버지": 2721,
      "바꾸": 2722,
      "바이": 2723,
      "전혀": 2724,
      "연금": 2725,
      "아들": 2726,
      "인증": 2727,
      "재정": 2728,
      "보도": 2729,
      "본부": 2730,
      "제안": 2731,
      "ᆫ가요": 2732,
      "따라": 2733,
      "직업": 2734,
      "아동": 2735,
      "국방": 2736,
      "행복": 2737,
      "위기": 2738,
      "게임": 2739,
      "50": 2740,
      "인터넷": 2741,
      "더라도": 2742,
      "인천": 2743,
      "빠르": 2744,
      "창출": 2745,
      "작업": 2746,
      "재난": 2747,
      "어리": 2748,
      "결혼": 2749,
      "대로": 2750,
      "비롯": 2751,
      "21": 2752,
      "라며": 2753,
      "서로": 2754,
      "부탁": 2755,
      "역시": 2756,
      "프랑": 2757,
      "얼마나": 2758,
      "충분": 2759,
      "소비자": 2760,
      "ᆯ지": 2761,
      "##랜드": 2762,
      "내년": 2763,
      "위반": 2764,
      "변경": 2765,
      "이행": 2766,
      "조건": 2767,
      "##라지": 2768,
      "통일": 2769,
      "전자": 2770,
      "식품": 2771,
      "사업자": 2772,
      "감소": 2773,
      "더군": 2774,
      "신속": 2775,
      "최초": 2776,
      "동물": 2777,
      "형태": 2778,
      "보고": 2779,
      "발굴": 2780,
      "니까": 2781,
      "숙소": 2782,
      "언제": 2783,
      "세상": 2784,
      "무슨": 2785,
      "선생": 2786,
      "최고": 2787,
      "심각": 2788,
      "정권": 2789,
      "사무": 2790,
      "영상": 2791,
      "예술": 2792,
      "아주": 2793,
      "독립": 2794,
      "계시": 2795,
      "나누": 2796,
      "강력": 2797,
      "남북": 2798,
      "태어나": 2799,
      "고통": 2800,
      "각종": 2801,
      "출산": 2802,
      "과거": 2803,
      "교통부": 2804,
      "##사자": 2805,
      "떨어지": 2806,
      "은행": 2807,
      "전략": 2808,
      "완전": 2809,
      "##디어": 2810,
      "오히": 2811,
      "보상": 2812,
      "금액": 2813,
      "오히려": 2814,
      "여부": 2815,
      "정하": 2816,
      "40": 2817,
      "이거": 2818,
      "달리": 2819,
      "##거리": 2820,
      "일정": 2821,
      "경영": 2822,
      "군대": 2823,
      "불구": 2824,
      "신규": 2825,
      "2017": 2826,
      "여러분": 2827,
      "관계자": 2828,
      "어려움": 2829,
      "공부": 2830,
      "목표": 2831,
      "기여": 2832,
      "기초": 2833,
      "교수": 2834,
      "어린이집": 2835,
      "단지": 2836,
      "농업": 2837,
      "거주": 2838,
      "인상": 2839,
      "법률": 2840,
      "바뀌": 2841,
      "조차": 2842,
      "정규": 2843,
      "자녀": 2844,
      "구매": 2845,
      "오후": 2846,
      "22": 2847,
      "독일": 2848,
      "주차": 2849,
      "##다리": 2850,
      "프랑스": 2851,
      "올라": 2852,
      "더군요": 2853,
      "거짓": 2854,
      "을까요": 2855,
      "걸리": 2856,
      "카드": 2857,
      "영화": 2858,
      "세대": 2859,
      "##드시": 2860,
      "가운": 2861,
      "억울": 2862,
      "공모": 2863,
      "권리": 2864,
      "들어오": 2865,
      "늘어나": 2866,
      "기념": 2867,
      "반드시": 2868,
      "지지": 2869,
      "접수": 2870,
      "걱정": 2871,
      "이사": 2872,
      "인구": 2873,
      "핵심": 2874,
      "아래": 2875,
      "진출": 2876,
      "가깝": 2877,
      "세우": 2878,
      "소개": 2879,
      "가운데": 2880,
      "차별": 2881,
      "산림": 2882,
      "설립": 2883,
      "소방": 2884,
      "마지": 2885,
      "역량": 2886,
      "마치": 2887,
      "제시": 2888,
      "따라서": 2889,
      "영국": 2890,
      "우려": 2891,
      "부정": 2892,
      "대체": 2893,
      "제외": 2894,
      "##텐츠": 2895,
      "엄청": 2896,
      "해소": 2897,
      "철저": 2898,
      "생명": 2899,
      "백신": 2900,
      "나서": 2901,
      "답변": 2902,
      "원인": 2903,
      "이날": 2904,
      "폭력": 2905,
      "주거": 2906,
      "단속": 2907,
      "소통": 2908,
      "동시": 2909,
      "장기": 2910,
      "진단": 2911,
      "수급": 2912,
      "수립": 2913,
      "지구": 2914,
      "음식": 2915,
      "시도": 2916,
      "향후": 2917,
      "이어지": 2918,
      "데이터": 2919,
      "이르": 2920,
      "지하": 2921,
      "##이지": 2922,
      "마지막": 2923,
      "체육": 2924,
      "##없이": 2925,
      "##이트": 2926,
      "엄마": 2927,
      "끝나": 2928,
      "##호사": 2929,
      "23": 2930,
      "부르": 2931,
      "특성": 2932,
      "가해": 2933,
      "전하": 2934,
      "차이": 2935,
      "##러스": 2936,
      "사랑": 2937,
      "연락": 2938,
      "예상": 2939,
      "ᆸ시오": 2940,
      "제조": 2941,
      "려는": 2942,
      "얘기": 2943,
      "##가지": 2944,
      "##심히": 2945,
      "외교": 2946,
      "헌법": 2947,
      "2015": 2948,
      "##동안": 2949,
      "작성": 2950,
      "합의": 2951,
      "상당": 2952,
      "수상": 2953,
      "##스로": 2954,
      "유럽": 2955,
      "갖추": 2956,
      "정확": 2957,
      "주제": 2958,
      "노동자": 2959,
      "이하": 2960,
      "자세": 2961,
      "정비": 2962,
      "학년": 2963,
      "2016": 2964,
      "문화재": 2965,
      "물질": 2966,
      "수산": 2967,
      "콘텐츠": 2968,
      "연결": 2969,
      "맞추": 2970,
      "198": 2971,
      "늘리": 2972,
      "디지": 2973,
      "한테": 2974,
      "장비": 2975,
      "28": 2976,
      "보유": 2977,
      "열심히": 2978,
      "##레스": 2979,
      "동의": 2980,
      "26": 2981,
      "27": 2982,
      "디지털": 2983,
      "입주": 2984,
      "모으": 2985,
      "스스로": 2986,
      "어머니": 2987,
      "세기": 2988,
      "다만": 2989,
      "수입": 2990,
      "협약": 2991,
      "철도": 2992,
      "대신": 2993,
      "내부": 2994,
      "구역": 2995,
      "평창": 2996,
      "서류": 2997,
      "원하": 2998,
      "졸업": 2999,
      "비하": 3000,
      "양성": 3001,
      "현대": 3002,
      "국무": 3003,
      "재판": 3004,
      "취하": 3005,
      "평균": 3006,
      "계기": 3007,
      "지내": 3008,
      "기자": 3009,
      "그만": 3010,
      "작품": 3011,
      "가상": 3012,
      "유통": 3013,
      "벤처": 3014,
      "가구": 3015,
      "미치": 3016,
      "회복": 3017,
      "최종": 3018,
      "초기": 3019,
      "원칙": 3020,
      "분명": 3021,
      "정규직": 3022,
      "사기": 3023,
      "제기": 3024,
      "효율": 3025,
      "맞춤": 3026,
      "육성": 3027,
      "월급": 3028,
      "설계": 3029,
      "부과": 3030,
      "심하": 3031,
      "돌아가": 3032,
      "더니": 3033,
      "##이스": 3034,
      "영업": 3035,
      "강제": 3036,
      "가해자": 3037,
      "그대로": 3038,
      "##공사": 3039,
      "편의": 3040,
      "권력": 3041,
      "구체": 3042,
      "비교": 3043,
      "공격": 3044,
      "스타": 3045,
      "대전": 3046,
      "제발": 3047,
      "년대": 3048,
      "다수": 3049,
      "었었": 3050,
      "빠지": 3051,
      "화장": 3052,
      "주의": 3053,
      "기다리": 3054,
      "허가": 3055,
      "제주": 3056,
      "대구": 3057,
      "차원": 3058,
      "수업": 3059,
      "##아지": 3060,
      "법원": 3061,
      "선발": 3062,
      "유치원": 3063,
      "공원": 3064,
      "광주": 3065,
      "현황": 3066,
      "므로": 3067,
      "체결": 3068,
      "취약": 3069,
      "상공": 3070,
      "너무나": 3071,
      "##총리": 3072,
      "완화": 3073,
      "매일": 3074,
      "부문": 3075,
      "긴급": 3076,
      "매년": 3077,
      "표준": 3078,
      "위협": 3079,
      "이끌": 3080,
      "인도": 3081,
      "평등": 3082,
      "떠나": 3083,
      "시범": 3084,
      "차례": 3085,
      "진정": 3086,
      "진료": 3087,
      "작년": 3088,
      "판결": 3089,
      "당부": 3090,
      "##반도": 3091,
      "방침": 3092,
      "전망": 3093,
      "197": 3094,
      "향상": 3095,
      "단순": 3096,
      "불안": 3097,
      "소유": 3098,
      "##아보": 3099,
      "절대": 3100,
      "집행": 3101,
      "불리": 3102,
      "과연": 3103,
      "검찰": 3104,
      "농촌": 3105,
      "운행": 3106,
      "##들이": 3107,
      "소속": 3108,
      "일상": 3109,
      "마스크": 3110,
      "담배": 3111,
      "사업장": 3112,
      "보육": 3113,
      "혁명": 3114,
      "근거": 3115,
      "으로부터": 3116,
      "29": 3117,
      "인원": 3118,
      "전부": 3119,
      "오래": 3120,
      "모델": 3121,
      "자율": 3122,
      "강원": 3123,
      "정당": 3124,
      "살아가": 3125,
      "즐기": 3126,
      "주도": 3127,
      "한반도": 3128,
      "2014": 3129,
      "동일": 3130,
      "보조": 3131,
      "음악": 3132,
      "상승": 3133,
      "증거": 3134,
      "허용": 3135,
      "투기": 3136,
      "전달": 3137,
      "토론": 3138,
      "표현": 3139,
      "화폐": 3140,
      "공장": 3141,
      "국토부": 3142,
      "형성": 3143,
      "##직자": 3144,
      "사이트": 3145,
      "31": 3146,
      "##리카": 3147,
      "공단": 3148,
      "실험": 3149,
      "등급": 3150,
      "비리": 3151,
      "##반기": 3152,
      "관람": 3153,
      "196": 3154,
      "파악": 3155,
      "생태": 3156,
      "후보": 3157,
      "상공인": 3158,
      "분양": 3159,
      "오전": 3160,
      "연장": 3161,
      "지식": 3162,
      "##소리": 3163,
      "통과": 3164,
      "글로": 3165,
      "으면서": 3166,
      "각각": 3167,
      "삼성": 3168,
      "보수": 3169,
      "여름": 3170,
      "바탕": 3171,
      "종교": 3172,
      "##페인": 3173,
      "완료": 3174,
      "##업자": 3175,
      "진흥": 3176,
      "경력": 3177,
      "진짜": 3178,
      "택시": 3179,
      "신설": 3180,
      "항상": 3181,
      "부여": 3182,
      "창조": 3183,
      "세종": 3184,
      "60": 3185,
      "소재": 3186,
      "장소": 3187,
      "고객": 3188,
      "특정": 3189,
      "공항": 3190,
      "특허": 3191,
      "노인": 3192,
      "무시": 3193,
      "군사": 3194,
      "보증": 3195,
      "남기": 3196,
      "수당": 3197,
      "의지": 3198,
      "유도": 3199,
      "대화": 3200,
      "주로": 3201,
      "글로벌": 3202,
      "##연금": 3203,
      "광고": 3204,
      "본격": 3205,
      "복무": 3206,
      "세력": 3207,
      "박근": 3208,
      "화재": 3209,
      "그동안": 3210,
      "거부": 3211,
      "수술": 3212,
      "##지르": 3213,
      "##문화": 3214,
      "차단": 3215,
      "의식": 3216,
      "전투": 3217,
      "시절": 3218,
      "2019": 3219,
      "박근혜": 3220,
      "의심": 3221,
      "정의": 3222,
      "##학생": 3223,
      "양국": 3224,
      "스포": 3225,
      "심의": 3226,
      "##므로": 3227,
      "##공단": 3228,
      "폭행": 3229,
      "어쩌": 3230,
      "##으키": 3231,
      "격리": 3232,
      "구하": 3233,
      "합동": 3234,
      "노동부": 3235,
      "접근": 3236,
      "대중": 3237,
      "계층": 3238,
      "시급": 3239,
      "난민": 3240,
      "없애": 3241,
      "피하": 3242,
      "194": 3243,
      "스트": 3244,
      "질환": 3245,
      "배치": 3246,
      "##우스": 3247,
      "예비": 3248,
      "포기": 3249,
      "부대": 3250,
      "수많": 3251,
      "##라이": 3252,
      "학습": 3253,
      "부당": 3254,
      "깨끗": 3255,
      "조합": 3256,
      "합리": 3257,
      "신경": 3258,
      "확정": 3259,
      "죽이": 3260,
      "당신": 3261,
      "적폐": 3262,
      "출신": 3263,
      "그럼": 3264,
      "번호": 3265,
      "민족": 3266,
      "그거": 3267,
      "어라": 3268,
      "질병": 3269,
      "더불": 3270,
      "주식": 3271,
      "혼자": 3272,
      "국민연금": 3273,
      "투표": 3274,
      "거짓말": 3275,
      "지원금": 3276,
      "개편": 3277,
      "걸치": 3278,
      "남편": 3279,
      "차관": 3280,
      "배출": 3281,
      "교류": 3282,
      "협회": 3283,
      "러시아": 3284,
      "바람": 3285,
      "돌아오": 3286,
      "은데": 3287,
      "엄청나": 3288,
      "만약": 3289,
      "경기도": 3290,
      "신뢰": 3291,
      "마찬": 3292,
      "마찬가지": 3293,
      "부부": 3294,
      "회담": 3295,
      "인재": 3296,
      "똑같": 3297,
      "스포츠": 3298,
      "자살": 3299,
      "##수록": 3300,
      "주인": 3301,
      "실질": 3302,
      "국정": 3303,
      "담당자": 3304,
      "아침": 3305,
      "돌봄": 3306,
      "법령": 3307,
      "소송": 3308,
      "속하": 3309,
      "공식": 3310,
      "강하": 3311,
      "기억": 3312,
      "직무": 3313,
      "고민": 3314,
      "고속": 3315,
      "임시": 3316,
      "발급": 3317,
      "살리": 3318,
      "홈페": 3319,
      "선진": 3320,
      "개소": 3321,
      "홈페이지": 3322,
      "당연히": 3323,
      "장치": 3324,
      "##레기": 3325,
      "디자": 3326,
      "판사": 3327,
      "겨울": 3328,
      "여건": 3329,
      "총리": 3330,
      "범위": 3331,
      "일으키": 3332,
      "리그": 3333,
      "도서": 3334,
      "앞서": 3335,
      "추천": 3336,
      "범죄자": 3337,
      "지적": 3338,
      "아무런": 3339,
      "##리스": 3340,
      "비슷": 3341,
      "제고": 3342,
      "지침": 3343,
      "현상": 3344,
      "아무리": 3345,
      "문자": 3346,
      "육아": 3347,
      "신용": 3348,
      "대기": 3349,
      "위원장": 3350,
      "사법": 3351,
      "려면": 3352,
      "안타": 3353,
      "가족부": 3354,
      "도착": 3355,
      "조기": 3356,
      "충분히": 3357,
      "확진": 3358,
      "195": 3359,
      "내려": 3360,
      "실제로": 3361,
      "정착": 3362,
      "투입": 3363,
      "감시": 3364,
      "무료": 3365,
      "쓰레기": 3366,
      "권익": 3367,
      "유명": 3368,
      "올라가": 3369,
      "교육부": 3370,
      "동계": 3371,
      "모집": 3372,
      "그녀": 3373,
      "구입": 3374,
      "##니아": 3375,
      "2020": 3376,
      "협업": 3377,
      "경쟁력": 3378,
      "모이": 3379,
      "보급": 3380,
      "상호": 3381,
      "아이디어": 3382,
      "오염": 3383,
      "머리": 3384,
      "제정": 3385,
      "대형": 3386,
      "자주": 3387,
      "참고": 3388,
      "2000": 3389,
      "중단": 3390,
      "##어들": 3391,
      "처분": 3392,
      "납부": 3393,
      "전반": 3394,
      "요금": 3395,
      "70": 3396,
      "외부": 3397,
      "누리집": 3398,
      "도대": 3399,
      "사라지": 3400,
      "아빠": 3401,
      "근처": 3402,
      "반복": 3403,
      "혹은": 3404,
      "폐기": 3405,
      "거기": 3406,
      "으려": 3407,
      "저지르": 3408,
      "시즌": 3409,
      "실패": 3410,
      "업종": 3411,
      "별도": 3412,
      "넘어": 3413,
      "입학": 3414,
      "개방": 3415,
      "음주": 3416,
      "확실": 3417,
      "도대체": 3418,
      "이러하": 3419,
      "속도": 3420,
      "재생": 3421,
      "안보": 3422,
      "취지": 3423,
      "수단": 3424,
      "인공": 3425,
      "선출": 3426,
      "기구": 3427,
      "빨리": 3428,
      "##프라": 3429,
      "당장": 3430,
      "보통": 3431,
      "바다": 3432,
      "성폭": 3433,
      "축구": 3434,
      "점점": 3435,
      "복지부": 3436,
      "분위": 3437,
      "변하": 3438,
      "침해": 3439,
      "군인": 3440,
      "2013": 3441,
      "아시아": 3442,
      "옮기": 3443,
      "300": 3444,
      "자식": 3445,
      "보완": 3446,
      "퇴직": 3447,
      "자영": 3448,
      "표시": 3449,
      "명령": 3450,
      "인근": 3451,
      "언급": 3452,
      "고등학교": 3453,
      "듯이": 3454,
      "생물": 3455,
      "연합": 3456,
      "현지": 3457,
      "나쁘": 3458,
      "자본": 3459,
      "극복": 3460,
      "공감": 3461,
      "무기": 3462,
      "차지": 3463,
      "년도": 3464,
      "특수": 3465,
      "##대학교": 3466,
      "노후": 3467,
      "편하": 3468,
      "체제": 3469,
      "향하": 3470,
      "만족": 3471,
      "살인": 3472,
      "승인": 3473,
      "로마": 3474,
      "촉진": 3475,
      "이탈": 3476,
      "학원": 3477,
      "환경부": 3478,
      "수소": 3479,
      "##전히": 3480,
      "는가": 3481,
      "하고": 3482,
      "출입": 3483,
      "##이드": 3484,
      "##붙이": 3485,
      "움직": 3486,
      "##펴보": 3487,
      "살펴보": 3488,
      "개정안": 3489,
      "전세": 3490,
      "실태": 3491,
      "펼치": 3492,
      "벌금": 3493,
      "교회": 3494,
      "##물관": 3495,
      "근데": 3496,
      "사유": 3497,
      "약속": 3498,
      "품질": 3499,
      "플랫": 3500,
      "실현": 3501,
      "무섭": 3502,
      "##프트": 3503,
      "회원": 3504,
      "뿌리": 3505,
      "심지": 3506,
      "대상자": 3507,
      "실천": 3508,
      "제재": 3509,
      "##범죄": 3510,
      "협조": 3511,
      "통제": 3512,
      "측정": 3513,
      "디자인": 3514,
      "태양": 3515,
      "민주주의": 3516,
      "휴가": 3517,
      "이뤄": 3518,
      "이뤄지": 3519,
      "접하": 3520,
      "챙기": 3521,
      "플랫폼": 3522,
      "김정": 3523,
      "지진": 3524,
      "이기": 3525,
      "시점": 3526,
      "심지어": 3527,
      "사태": 3528,
      "토지": 3529,
      "구요": 3530,
      "세월": 3531,
      "학부": 3532,
      "호스트": 3533,
      "분리": 3534,
      "##산물": 3535,
      "축제": 3536,
      "촬영": 3537,
      "수용": 3538,
      "법인": 3539,
      "흡연": 3540,
      "심리": 3541,
      "경찰청": 3542,
      "시청": 3543,
      "##란드": 3544,
      "나무": 3545,
      "가져": 3546,
      "반응": 3547,
      "종사자": 3548,
      "친절": 3549,
      "##자기": 3550,
      "변호사": 3551,
      "수익": 3552,
      "아마": 3553,
      "인프라": 3554,
      "무역": 3555,
      "학대": 3556,
      "특징": 3557,
      "보안": 3558,
      "드러": 3559,
      "쓰이": 3560,
      "필수": 3561,
      "지능": 3562,
      "준수": 3563,
      "청구": 3564,
      "문제점": 3565,
      "순간": 3566,
      "소음": 3567,
      "파견": 3568,
      "평생": 3569,
      "희생": 3570,
      "농가": 3571,
      "공기": 3572,
      "대리": 3573,
      "선박": 3574,
      "지시": 3575,
      "유일": 3576,
      "봉사": 3577,
      "궁금": 3578,
      "구분": 3579,
      "최선": 3580,
      "복합": 3581,
      "화장실": 3582,
      "고령": 3583,
      "기후": 3584,
      "단위": 3585,
      "지하철": 3586,
      "부서": 3587,
      "수수": 3588,
      "유전": 3589,
      "통계": 3590,
      "1000": 3591,
      "단축": 3592,
      "발언": 3593,
      "투명": 3594,
      "미리": 3595,
      "취소": 3596,
      "나아가": 3597,
      "목소리": 3598,
      "생계": 3599,
      "비행": 3600,
      "ᆫ다며": 3601,
      "영어": 3602,
      "검색": 3603,
      "증명": 3604,
      "##청사": 3605,
      "취득": 3606,
      "예약": 3607,
      "선언": 3608,
      "안타깝": 3609,
      "가리": 3610,
      "실적": 3611,
      "업계": 3612,
      "편리": 3613,
      "양육": 3614,
      "게시": 3615,
      "입법": 3616,
      "돌리": 3617,
      "사상": 3618,
      "이란": 3619,
      "에어": 3620,
      "비율": 3621,
      "확충": 3622,
      "요양": 3623,
      "프로젝": 3624,
      "응급": 3625,
      "천만": 3626,
      "모니": 3627,
      "ᆸ시요": 3628,
      "손해": 3629,
      "선도": 3630,
      "가르": 3631,
      "공제": 3632,
      "얼굴": 3633,
      "으므로": 3634,
      "193": 3635,
      "비상": 3636,
      "프로젝트": 3637,
      "분위기": 3638,
      "성인": 3639,
      "모니터": 3640,
      "동생": 3641,
      "유사": 3642,
      "현행": 3643,
      "개념": 3644,
      "화학": 3645,
      "언어": 3646,
      "물류": 3647,
      "유공": 3648,
      "통화": 3649,
      "대면": 3650,
      "실행": 3651,
      "유형": 3652,
      "자라": 3653,
      "요소": 3654,
      "대학교": 3655,
      "##바르": 3656,
      "기계": 3657,
      "대폭": 3658,
      "고소": 3659,
      "권한": 3660,
      "찾아가": 3661,
      "증상": 3662,
      "요인": 3663,
      "아르": 3664,
      "제국": 3665,
      "합격": 3666,
      "바이러스": 3667,
      "모양": 3668,
      "훨씬": 3669,
      "2012": 3670,
      "이어": 3671,
      "일단": 3672,
      "전용": 3673,
      "불가": 3674,
      "아름": 3675,
      "수칙": 3676,
      "냐고": 3677,
      "여전히": 3678,
      "도전": 3679,
      "분류": 3680,
      "원래": 3681,
      "착용": 3682,
      "노선": 3683,
      "전담": 3684,
      "철저히": 3685,
      "뉴딜": 3686,
      "장려": 3687,
      "벗어나": 3688,
      "기울": 3689,
      "어떠": 3690,
      "가하": 3691,
      "소식": 3692,
      "매출": 3693,
      "##아들이": 3694,
      "체크": 3695,
      "컨설": 3696,
      "그룹": 3697,
      "법안": 3698,
      "불과": 3699,
      "즉시": 3700,
      "발달": 3701,
      "싸우": 3702,
      "병역": 3703,
      "초등": 3704,
      "##러지": 3705,
      "가슴": 3706,
      "원장": 3707,
      "던지": 3708,
      "학부모": 3709,
      "어르": 3710,
      "주재": 3711,
      "##의원": 3712,
      "대사": 3713,
      "덧붙이": 3714,
      "보험료": 3715,
      "문의": 3716,
      "##담회": 3717,
      "탄소": 3718,
      "마리": 3719,
      "면접": 3720,
      "스트레스": 3721,
      "동네": 3722,
      "사장": 3723,
      "답답": 3724,
      "##교육": 3725,
      "어르신": 3726,
      "달러": 3727,
      "초등학교": 3728,
      "채우": 3729,
      "ᆯ수록": 3730,
      "간담회": 3731,
      "구속": 3732,
      "집값": 3733,
      "균형": 3734,
      "자는": 3735,
      "저녁": 3736,
      "재해": 3737,
      "감정": 3738,
      "이내": 3739,
      "정지": 3740,
      "실정": 3741,
      "조작": 3742,
      "반면": 3743,
      "하늘": 3744,
      "유엔": 3745,
      "마시": 3746,
      "##요일": 3747,
      "일제": 3748,
      "중점": 3749,
      "받아들이": 3750,
      "##이션": 3751,
      "유공자": 3752,
      "주관": 3753,
      "연기": 3754,
      "시정": 3755,
      "사과": 3756,
      "으니까": 3757,
      "형사": 3758,
      "화물": 3759,
      "##화국": 3760,
      "##트남": 3761,
      "통보": 3762,
      "임명": 3763,
      "정리": 3764,
      "갑자기": 3765,
      "형식": 3766,
      "##스코": 3767,
      "고위": 3768,
      "192": 3769,
      "자영업자": 3770,
      "ᆯ려": 3771,
      "선진국": 3772,
      "마이": 3773,
      "기타": 3774,
      "등장": 3775,
      "항공기": 3776,
      "인기": 3777,
      "기원": 3778,
      "인생": 3779,
      "중간": 3780,
      "회장": 3781,
      "##스터": 3782,
      "##연구": 3783,
      "경찰서": 3784,
      "달성": 3785,
      "비싸": 3786,
      "##CT": 3787,
      "예전": 3788,
      "유기": 3789,
      "종목": 3790,
      "검증": 3791,
      "기금": 3792,
      "##머지": 3793,
      "는다고": 3794,
      "세부": 3795,
      "경상": 3796,
      "나머지": 3797,
      "새로": 3798,
      "프리": 3799,
      "질문": 3800,
      "대처": 3801,
      "정원": 3802,
      "휴대": 3803,
      "근본": 3804,
      "아름답": 3805,
      "노출": 3806,
      "마저": 3807,
      "지배": 3808,
      "최대한": 3809,
      "스마트폰": 3810,
      "전력": 3811,
      "상관": 3812,
      "입원": 3813,
      "면제": 3814,
      "이용자": 3815,
      "사정": 3816,
      "인지": 3817,
      "추정": 3818,
      "컨설팅": 3819,
      "권고": 3820,
      "에요": 3821,
      "요건": 3822,
      "신문": 3823,
      "목숨": 3824,
      "브리": 3825,
      "첨단": 3826,
      "수렴": 3827,
      "신분": 3828,
      "##라스": 3829,
      "확진자": 3830,
      "부품": 3831,
      "안심": 3832,
      "고등": 3833,
      "완전히": 3834,
      "이탈리아": 3835,
      "유리": 3836,
      "최소한": 3837,
      "줄어들": 3838,
      "500": 3839,
      "적합": 3840,
      "##생활": 3841,
      "##북도": 3842,
      "존경": 3843,
      "통상": 3844,
      "들이": 3845,
      "주기": 3846,
      "커지": 3847,
      "고시": 3848,
      "소중": 3849,
      "기기": 3850,
      "명확": 3851,
      "보존": 3852,
      "컴퓨": 3853,
      "당국": 3854,
      "베트남": 3855,
      "필자": 3856,
      "자문": 3857,
      "##은행": 3858,
      "개국": 3859,
      "비판": 3860,
      "##역시": 3861,
      "융합": 3862,
      "적절": 3863,
      "운용": 3864,
      "##센터": 3865,
      "정치인": 3866,
      "둘째": 3867,
      "라이": 3868,
      "이렇게": 3869,
      "종류": 3870,
      "갈등": 3871,
      "자가": 3872,
      "아내": 3873,
      "남녀": 3874,
      "그림": 3875,
      "35": 3876,
      "191": 3877,
      "로써": 3878,
      "확장": 3879,
      "물리": 3880,
      "추석": 3881,
      "ᆯ로": 3882,
      "국방부": 3883,
      "세포": 3884,
      "파괴": 3885,
      "분쟁": 3886,
      "월드": 3887,
      "약자": 3888,
      "##아하": 3889,
      "신체": 3890,
      "간단": 3891,
      "설정": 3892,
      "나중": 3893,
      "영역": 3894,
      "입국": 3895,
      "거두": 3896,
      "결제": 3897,
      "벌어지": 3898,
      "이곳": 3899,
      "협상": 3900,
      "진입": 3901,
      "연령": 3902,
      "약하": 3903,
      "느낌": 3904,
      "성범죄": 3905,
      "36": 3906,
      "면허": 3907,
      "편성": 3908,
      "청산": 3909,
      "수정": 3910,
      "재배": 3911,
      "노래": 3912,
      "##공원": 3913,
      "제거": 3914,
      "출근": 3915,
      "가스": 3916,
      "물건": 3917,
      "아기": 3918,
      "는다는": 3919,
      "법무": 3920,
      "수리": 3921,
      "우주": 3922,
      "##보이": 3923,
      "식물": 3924,
      "과태": 3925,
      "공고": 3926,
      "서울시": 3927,
      "김정은": 3928,
      "감염병": 3929,
      "모니터링": 3930,
      "할인": 3931,
      "##비아": 3932,
      "축산": 3933,
      "이론": 3934,
      "증진": 3935,
      "과태료": 3936,
      "국무총리": 3937,
      "주말": 3938,
      "앞두": 3939,
      "건축물": 3940,
      "기울이": 3941,
      "고발": 3942,
      "부지": 3943,
      "이자": 3944,
      "진실": 3945,
      "좋아하": 3946,
      "새벽": 3947,
      "미술": 3948,
      "경비": 3949,
      "지휘": 3950,
      "출범": 3951,
      "울산": 3952,
      "낭비": 3953,
      "구간": 3954,
      "항목": 3955,
      "수십": 3956,
      "명예": 3957,
      "흐르": 3958,
      "2011": 3959,
      "##디오": 3960,
      "실업": 3961,
      "주간": 3962,
      "비롯하": 3963,
      "전파": 3964,
      "2010": 3965,
      "경남": 3966,
      "올바르": 3967,
      "주행": 3968,
      "운전자": 3969,
      "우승": 3970,
      "작가": 3971,
      "의문": 3972,
      "다리": 3973,
      "한계": 3974,
      "성적": 3975,
      "수여": 3976,
      "평범": 3977,
      "실시간": 3978,
      "교체": 3979,
      "알아보": 3980,
      "임신": 3981,
      "접촉": 3982,
      "과장": 3983,
      "치매": 3984,
      "개별": 3985,
      "실무": 3986,
      "작용": 3987,
      "출발": 3988,
      "ᆸ시다": 3989,
      "넘어가": 3990,
      "어찌": 3991,
      "벌이": 3992,
      "미만": 3993,
      "##나무": 3994,
      "구제": 3995,
      "든지": 3996,
      "자산": 3997,
      "52": 3998,
      "연속": 3999,
      "정기": 4000,
      "##사고": 4001,
      "##공항": 4002,
      "공산": 4003,
      "수수료": 4004,
      "원자": 4005,
      "포장": 4006,
      "문체": 4007,
      "캠페인": 4008,
      "##벌이": 4009,
      "##조건": 4010,
      "측면": 4011,
      "포상": 4012,
      "컴퓨터": 4013,
      "고문": 4014,
      "##람회": 4015,
      "방치": 4016,
      "상생": 4017,
      "충격": 4018,
      "움직이": 4019,
      "상식": 4020,
      "##바일": 4021,
      "##다가": 4022,
      "원전": 4023,
      "알려": 4024,
      "기부": 4025,
      "매장": 4026,
      "굉장": 4027,
      "부상": 4028,
      "품목": 4029,
      "80": 4030,
      "평소": 4031,
      "##무리": 4032,
      "시위": 4033,
      "강남": 4034,
      "보훈": 4035,
      "실수": 4036,
      "강원도": 4037,
      "출전": 4038,
      "해석": 4039,
      "##복지": 4040,
      "신호": 4041,
      "호텔": 4042,
      "##르크": 4043,
      "그저": 4044,
      "처하": 4045,
      "모바일": 4046,
      "##니스": 4047,
      "##바이": 4048,
      "결합": 4049,
      "폐쇄": 4050,
      "교황": 4051,
      "해수": 4052,
      "상처": 4053,
      "이슈": 4054,
      "맡기": 4055,
      "배려": 4056,
      "가까": 4057,
      "타이": 4058,
      "##안전": 4059,
      "문체부": 4060,
      "박람회": 4061,
      "관광객": 4062,
      "무고": 4063,
      "##국민": 4064,
      "금리": 4065,
      "드론": 4066,
      "라서": 4067,
      "택배": 4068,
      "주년": 4069,
      "부총리": 4070,
      "수능": 4071,
      "치르": 4072,
      "연수": 4073,
      "공모전": 4074,
      "##안부": 4075,
      "전면": 4076,
      "투자자": 4077,
      "안전처": 4078,
      "식당": 4079,
      "따로": 4080,
      "주목": 4081,
      "설명회": 4082,
      "구청": 4083,
      "토대": 4084,
      "무조건": 4085,
      "바르": 4086,
      "시각": 4087,
      "계산": 4088,
      "취급": 4089,
      "2021": 4090,
      "맞이": 4091,
      "읍니다": 4092,
      "손실": 4093,
      "알바": 4094,
      "댓글": 4095,
      "여론": 4096,
      "의약": 4097,
      "분노": 4098,
      "이외": 4099,
      "솔직": 4100,
      "유산": 4101,
      "점수": 4102,
      "포럼": 4103,
      "한미": 4104,
      "교육청": 4105,
      "소요": 4106,
      "책임지": 4107,
      "##달리": 4108,
      "유입": 4109,
      "중대": 4110,
      "네트": 4111,
      "작전": 4112,
      "테러": 4113,
      "##광역시": 4114,
      "초과": 4115,
      "##르스": 4116,
      "미사": 4117,
      "##루스": 4118,
      "학기": 4119,
      "스타트": 4120,
      "가르치": 4121,
      "전형": 4122,
      "굉장히": 4123,
      "적발": 4124,
      "충전": 4125,
      "산재": 4126,
      "반도": 4127,
      "생존": 4128,
      "마무리": 4129,
      "수집": 4130,
      "종료": 4131,
      "규칙": 4132,
      "카페": 4133,
      "##끄럽": 4134,
      "엔진": 4135,
      "가까이": 4136,
      "도서관": 4137,
      "감안": 4138,
      "한번": 4139,
      "물품": 4140,
      "한국인": 4141,
      "협정": 4142,
      "붙이": 4143,
      "마트": 4144,
      "조항": 4145,
      "그래도": 4146,
      "청약": 4147,
      "광역": 4148,
      "둘러": 4149,
      "##리어": 4150,
      "##버스": 4151,
      "바이오": 4152,
      "의회": 4153,
      "아프리카": 4154,
      "주차장": 4155,
      "완성": 4156,
      "예측": 4157,
      "노사": 4158,
      "혐의": 4159,
      "호소": 4160,
      "하반기": 4161,
      "##남도": 4162,
      "자격증": 4163,
      "고도": 4164,
      "공익": 4165,
      "달라지": 4166,
      "동원": 4167,
      "오랜": 4168,
      "징역": 4169,
      "바라보": 4170,
      "수시": 4171,
      "유행": 4172,
      "보관": 4173,
      "설비": 4174,
      "##벤트": 4175,
      "진로": 4176,
      "꾸준": 4177,
      "자고": 4178,
      "들리": 4179,
      "네트워": 4180,
      "기재": 4181,
      "순위": 4182,
      "드러나": 4183,
      "무리": 4184,
      "창의": 4185,
      "먹이": 4186,
      "박물관": 4187,
      "파리": 4188,
      "이벤트": 4189,
      "##서울": 4190,
      "승리": 4191,
      "사용자": 4192,
      "애로": 4193,
      "동맹": 4194,
      "다면서": 4195,
      "TV": 4196,
      "가맹": 4197,
      "연구소": 4198,
      "이웃": 4199,
      "악화": 4200,
      "이주": 4201,
      "인물": 4202,
      "조달": 4203,
      "수산부": 4204,
      "눈치": 4205,
      "로봇": 4206,
      "##과학": 4207,
      "연휴": 4208,
      "정작": 4209,
      "국회의원": 4210,
      "다루": 4211,
      "조리": 4212,
      "내일": 4213,
      "관광부": 4214,
      "중학교": 4215,
      "공동체": 4216,
      "연대": 4217,
      "건의": 4218,
      "어야지": 4219,
      "응원": 4220,
      "국내외": 4221,
      "을지": 4222,
      "더라구": 4223,
      "연간": 4224,
      "병행": 4225,
      "가게": 4226,
      "고치": 4227,
      "방해": 4228,
      "자전": 4229,
      "5000": 4230,
      "성폭력": 4231,
      "노조": 4232,
      "기분": 4233,
      "위탁": 4234,
      "양심": 4235,
      "코스": 4236,
      "2009": 4237,
      "위주": 4238,
      "##웨어": 4239,
      "##뜨리": 4240,
      "간호사": 4241,
      "산불": 4242,
      "아우": 4243,
      "주소": 4244,
      "대우": 4245,
      "낮추": 4246,
      "##드리": 4247,
      "바쁘": 4248,
      "용역": 4249,
      "주체": 4250,
      "태도": 4251,
      "적정": 4252,
      "##50": 4253,
      "브리핑": 4254,
      "심각하": 4255,
      "미디어": 4256,
      "느냐": 4257,
      "운송": 4258,
      "고양": 4259,
      "그때": 4260,
      "어른": 4261,
      "올라오": 4262,
      "반려": 4263,
      "##미니": 4264,
      "촛불": 4265,
      "징계": 4266,
      "협의회": 4267,
      "명절": 4268,
      "상징": 4269,
      "도와": 4270,
      "선제": 4271,
      "2008": 4272,
      "연말": 4273,
      "펀드": 4274,
      "열차": 4275,
      "돌보": 4276,
      "##학자": 4277,
      "그리스": 4278,
      "고생": 4279,
      "중증": 4280,
      "지나가": 4281,
      "발행": 4282,
      "경찰관": 4283,
      "따뜻": 4284,
      "##라우": 4285,
      "##아내": 4286,
      "AI": 4287,
      "시행령": 4288,
      "상상": 4289,
      "넘기": 4290,
      "스타트업": 4291,
      "경북": 4292,
      "주어지": 4293,
      "괜찮": 4294,
      "혼란": 4295,
      "터지": 4296,
      "도와주": 4297,
      "관할": 4298,
      "제약": 4299,
      "그린": 4300,
      "논란": 4301,
      "##티브": 4302,
      "##다니": 4303,
      "물가": 4304,
      "부가": 4305,
      "##라리": 4306,
      "##식품": 4307,
      "중기": 4308,
      "복원": 4309,
      "민주당": 4310,
      "그러면": 4311,
      "##도로": 4312,
      "겨우": 4313,
      "알려지": 4314,
      "소독": 4315,
      "특화": 4316,
      "퇴근": 4317,
      "상당히": 4318,
      "##관리": 4319,
      "강의": 4320,
      "중립": 4321,
      "방어": 4322,
      "##저히": 4323,
      "지위": 4324,
      "식사": 4325,
      "허위": 4326,
      "차질": 4327,
      "무대": 4328,
      "성능": 4329,
      "조용": 4330,
      "판정": 4331,
      "거점": 4332,
      "눈물": 4333,
      "내놓": 4334,
      "네트워크": 4335,
      "관행": 4336,
      "상반기": 4337,
      "자랑": 4338,
      "파일": 4339,
      "야구": 4340,
      "교과": 4341,
      "방위": 4342,
      "재단": 4343,
      "하락": 4344,
      "도심": 4345,
      "신혼": 4346,
      "활발": 4347,
      "채무": 4348,
      "이미지": 4349,
      "서식": 4350,
      "널리": 4351,
      "유관": 4352,
      "체류": 4353,
      "매매": 4354,
      "장학": 4355,
      "추세": 4356,
      "크기": 4357,
      "축소": 4358,
      "##시지": 4359,
      "잠시": 4360,
      "메르스": 4361,
      "모임": 4362,
      "원활": 4363,
      "공직자": 4364,
      "나타내": 4365,
      "곳곳": 4366,
      "유해": 4367,
      "논리": 4368,
      "어제": 4369,
      "산림청": 4370,
      "지인": 4371,
      "육군": 4372,
      "달하": 4373,
      "할머니": 4374,
      "지니": 4375,
      "영양": 4376,
      "후속": 4377,
      "32": 4378,
      "으라": 4379,
      "황제": 4380,
      "##본부": 4381,
      "자전거": 4382,
      "전공": 4383,
      "세월호": 4384,
      "불만": 4385,
      "가을": 4386,
      "공정위": 4387,
      "방사": 4388,
      "양식": 4389,
      "경계": 4390,
      "교실": 4391,
      "비밀": 4392,
      "전역": 4393,
      "경기장": 4394,
      "아예": 4395,
      "법정": 4396,
      "수치": 4397,
      "훼손": 4398,
      "##지대": 4399,
      "쇼핑": 4400,
      "지연": 4401,
      "가득": 4402,
      "장병": 4403,
      "교환": 4404,
      "바닥": 4405,
      "190": 4406,
      "복잡": 4407,
      "경로": 4408,
      "계약서": 4409,
      "집안": 4410,
      "공매": 4411,
      "긍정": 4412,
      "야간": 4413,
      "워크": 4414,
      "합법": 4415,
      "포털": 4416,
      "해상": 4417,
      "안전부": 4418,
      "솔직히": 4419,
      "요리": 4420,
      "전남": 4421,
      "거래소": 4422,
      "남부": 4423,
      "심판": 4424,
      "##스타": 4425,
      "지도자": 4426,
      "물량": 4427,
      "기상": 4428,
      "농장": 4429,
      "당사자": 4430,
      "의약품": 4431,
      "##로지": 4432,
      "##가스": 4433,
      "제주도": 4434,
      "주위": 4435,
      "버티": 4436,
      "약물": 4437,
      "##먼지": 4438,
      "돼지": 4439,
      "일방": 4440,
      "소프트": 4441,
      "RD": 4442,
      "레이": 4443,
      "죽음": 4444,
      "품종": 4445,
      "전직": 4446,
      "절감": 4447,
      "점차": 4448,
      "조속": 4449,
      "질서": 4450,
      "출연": 4451,
      "추구": 4452,
      "유전자": 4453,
      "의도": 4454,
      "해제": 4455,
      "지표": 4456,
      "녹색": 4457,
      "삭제": 4458,
      "##스탄": 4459,
      "재정부": 4460,
      "일반인": 4461,
      "첫째": 4462,
      "지불": 4463,
      "##기술": 4464,
      "사업주": 4465,
      "공인": 4466,
      "수학": 4467,
      "농림": 4468,
      "##회사": 4469,
      "사립": 4470,
      "흘리": 4471,
      "약간": 4472,
      "##30": 4473,
      "사각": 4474,
      "가동": 4475,
      "학자": 4476,
      "수급자": 4477,
      "##위원": 4478,
      "개설": 4479,
      "독도": 4480,
      "명시": 4481,
      "복귀": 4482,
      "가공": 4483,
      "모색": 4484,
      "빼앗": 4485,
      "휴직": 4486,
      "빌리": 4487,
      "소수": 4488,
      "현금": 4489,
      "##인트": 4490,
      "혈세": 4491,
      "사안": 4492,
      "선물": 4493,
      "어이": 4494,
      "몇몇": 4495,
      "가져오": 4496,
      "휴게": 4497,
      "존중": 4498,
      "문화재청": 4499,
      "진화": 4500,
      "출원": 4501,
      "##데이터": 4502,
      "관찰": 4503,
      "##나다": 4504,
      "담기": 4505,
      "##라도": 4506,
      "저렴": 4507,
      "괴롭": 4508,
      "##쳐지": 4509,
      "스페인": 4510,
      "체감": 4511,
      "3000": 4512,
      "급식": 4513,
      "근절": 4514,
      "성격": 4515,
      "##주시": 4516,
      "협박": 4517,
      "미사일": 4518,
      "혹시": 4519,
      "동참": 4520,
      "다소": 4521,
      "전년": 4522,
      "일시": 4523,
      "실내": 4524,
      "동료": 4525,
      "2005": 4526,
      "저장": 4527,
      "산정": 4528,
      "초청": 4529,
      "노무": 4530,
      "브랜드": 4531,
      "여객": 4532,
      "아무것": 4533,
      "강요": 4534,
      "문서": 4535,
      "시상": 4536,
      "다치": 4537,
      "150": 4538,
      "흐름": 4539,
      "65": 4540,
      "긴밀": 4541,
      "지대": 4542,
      "##업체": 4543,
      "2007": 4544,
      "메시지": 4545,
      "행하": 4546,
      "역대": 4547,
      "정부서울": 4548,
      "정부서울청사": 4549,
      "적응": 4550,
      "경고": 4551,
      "##지사": 4552,
      "절반": 4553,
      "공포": 4554,
      "공직": 4555,
      "용기": 4556,
      "고지": 4557,
      "##고기": 4558,
      "관람객": 4559,
      "놀라": 4560,
      "덕분": 4561,
      "IT": 4562,
      "무너지": 4563,
      "민원인": 4564,
      "34": 4565,
      "##아리": 4566,
      "매입": 4567,
      "후원": 4568,
      "격차": 4569,
      "감축": 4570,
      "주문": 4571,
      "여유": 4572,
      "진급": 4573,
      "코리아": 4574,
      "해군": 4575,
      "법무부": 4576,
      "격려": 4577,
      "전수": 4578,
      "병사": 4579,
      "사망자": 4580,
      "총괄": 4581,
      "공기업": 4582,
      "특례": 4583,
      "발사": 4584,
      "지출": 4585,
      "과도": 4586,
      "꾸준히": 4587,
      "배달": 4588,
      "빅데이터": 4589,
      "##가족": 4590,
      "유출": 4591,
      "출시": 4592,
      "이혼": 4593,
      "침대": 4594,
      "호흡": 4595,
      "대행": 4596,
      "진술": 4597,
      "보전": 4598,
      "생리": 4599,
      "광복": 4600,
      "피부": 4601,
      "상인": 4602,
      "구현": 4603,
      "통장": 4604,
      "사리": 4605,
      "하도": 4606,
      "이랑": 4607,
      "##EC": 4608,
      "단기": 4609,
      "일대": 4610,
      "도박": 4611,
      "연주": 4612,
      "싸움": 4613,
      "##영상": 4614,
      "임상": 4615,
      "건너": 4616,
      "미군": 4617,
      "제일": 4618,
      "배상": 4619,
      "일종": 4620,
      "맞벌이": 4621,
      "위생": 4622,
      "시내": 4623,
      "강릉": 4624,
      "대안": 4625,
      "의결": 4626,
      "기하": 4627,
      "오로지": 4628,
      "막히": 4629,
      "게시판": 4630,
      "33": 4631,
      "다가오": 4632,
      "비중": 4633,
      "조절": 4634,
      "임무": 4635,
      "대금": 4636,
      "##NS": 4637,
      "##진흥": 4638,
      "장사": 4639,
      "동반": 4640,
      "보조금": 4641,
      "청렴": 4642,
      "충남": 4643,
      "폐기물": 4644,
      "캐나다": 4645,
      "한글": 4646,
      "실습": 4647,
      "##유산": 4648,
      "가이드": 4649,
      "참전": 4650,
      "결론": 4651,
      "계좌": 4652,
      "사후": 4653,
      "성실": 4654,
      "해안": 4655,
      "방학": 4656,
      "끼리": 4657,
      "숙박": 4658,
      "단일": 4659,
      "45": 4660,
      "복구": 4661,
      "담보": 4662,
      "부인": 4663,
      "해명": 4664,
      "따지": 4665,
      "당선": 4666,
      "개막": 4667,
      "##세요": 4668,
      "##교통": 4669,
      "강사": 4670,
      "과목": 4671,
      "보고서": 4672,
      "광장": 4673,
      "놓이": 4674,
      "뛰어나": 4675,
      "선보이": 4676,
      "연봉": 4677,
      "때리": 4678,
      "##리오": 4679,
      "정식": 4680,
      "순환": 4681,
      "##동물": 4682,
      "관광지": 4683,
      "저감": 4684,
      "배포": 4685,
      "이슬": 4686,
      "노예": 4687,
      "부채": 4688,
      "유튜": 4689,
      "분명히": 4690,
      "단순히": 4691,
      "결코": 4692,
      "실효": 4693,
      "획득": 4694,
      "##직원": 4695,
      "커피": 4696,
      "##이버": 4697,
      "마땅": 4698,
      "들어서": 4699,
      "지상": 4700,
      "케이": 4701,
      "모자": 4702,
      "잡히": 4703,
      "직장인": 4704,
      "일환": 4705,
      "채권": 4706,
      "동영상": 4707,
      "냄새": 4708,
      "자발": 4709,
      "사이버": 4710,
      "공약": 4711,
      "선별": 4712,
      "회계": 4713,
      "채널": 4714,
      "항만": 4715,
      "권역": 4716,
      "지나치": 4717,
      "소년": 4718,
      "다행": 4719,
      "지점": 4720,
      "휴식": 4721,
      "소련": 4722,
      "공매도": 4723,
      "망하": 4724,
      "입찰": 4725,
      "수험": 4726,
      "유예": 4727,
      "이재": 4728,
      "거듭": 4729,
      "ᆯ려고": 4730,
      "게다가": 4731,
      "차라리": 4732,
      "2006": 4733,
      "고향": 4734,
      "농산물": 4735,
      "공화국": 4736,
      "연구원": 4737,
      "편의점": 4738,
      "멈추": 4739,
      "상시": 4740,
      "##오르": 4741,
      "출생": 4742,
      "동력": 4743,
      "소프트웨어": 4744,
      "시리": 4745,
      "##미널": 4746,
      "강도": 4747,
      "이래": 4748,
      "90": 4749,
      "연방": 4750,
      "소장": 4751,
      "고서": 4752,
      "##어도": 4753,
      "사단": 4754,
      "인건": 4755,
      "중개": 4756,
      "수석": 4757,
      "관리자": 4758,
      "채택": 4759,
      "인건비": 4760,
      "마케": 4761,
      "스위": 4762,
      "##메라": 4763,
      "엄격": 4764,
      "요원": 4765,
      "임용": 4766,
      "유발": 4767,
      "업자": 4768,
      "활약": 4769,
      "수령": 4770,
      "악용": 4771,
      "완벽": 4772,
      "##라마": 4773,
      "##무르": 4774,
      "다문화": 4775,
      "사무실": 4776,
      "마르": 4777,
      "타당": 4778,
      "##세우": 4779,
      "놀이": 4780,
      "영토": 4781,
      "SNS": 4782,
      "대변": 4783,
      "자제": 4784,
      "잔인": 4785,
      "절대로": 4786,
      "기독": 4787,
      "##연구원": 4788,
      "##아시아": 4789,
      "공시": 4790,
      "미세먼지": 4791,
      "온도": 4792,
      "의혹": 4793,
      "펼쳐지": 4794,
      "##다수": 4795,
      "두렵": 4796,
      "배경": 4797,
      "찾아오": 4798,
      "병상": 4799,
      "건립": 4800,
      "플레이": 4801,
      "브라": 4802,
      "개통": 4803,
      "페미니": 4804,
      "수원": 4805,
      "장점": 4806,
      "정체": 4807,
      "문학": 4808,
      "박사": 4809,
      "무상": 4810,
      "재학": 4811,
      "탄생": 4812,
      "일찍": 4813,
      "이슬람": 4814,
      "오스트": 4815,
      "첨부": 4816,
      "영세": 4817,
      "검진": 4818,
      "살해": 4819,
      "의존": 4820,
      "본사": 4821,
      "잖아": 4822,
      "대다수": 4823,
      "상환": 4824,
      "##조합": 4825,
      "연료": 4826,
      "형제": 4827,
      "##협회": 4828,
      "상장": 4829,
      "실증": 4830,
      "현안": 4831,
      "어업": 4832,
      "##트리": 4833,
      "행태": 4834,
      "는다면": 4835,
      "시달리": 4836,
      "적어도": 4837,
      "##민주": 4838,
      "사각지대": 4839,
      "해체": 4840,
      "반도체": 4841,
      "금연": 4842,
      "날씨": 4843,
      "관세": 4844,
      "종사": 4845,
      "압박": 4846,
      "우울": 4847,
      "다녀": 4848,
      "등등": 4849,
      "거대": 4850,
      "이명": 4851,
      "잠재": 4852,
      "터미널": 4853,
      "##나마": 4854,
      "선고": 4855,
      "명칭": 4856,
      "38": 4857,
      "북핵": 4858,
      "교활": 4859,
      "인수": 4860,
      "엘리": 4861,
      "집회": 4862,
      "충돌": 4863,
      "##BS": 4864,
      "장군": 4865,
      "처우": 4866,
      "인류": 4867,
      "온갖": 4868,
      "자면": 4869,
      "창문": 4870,
      "관측": 4871,
      "편안": 4872,
      "제조업": 4873,
      "숫자": 4874,
      "부리": 4875,
      "전북": 4876,
      "청사": 4877,
      "감면": 4878,
      "월드컵": 4879,
      "KT": 4880,
      "사형": 4881,
      "장난": 4882,
      "정밀": 4883,
      "##로스": 4884,
      "명의": 4885,
      "운항": 4886,
      "높아지": 4887,
      "데리": 4888,
      "외치": 4889,
      "흔들": 4890,
      "입사": 4891,
      "성분": 4892,
      "표창": 4893,
      "농식품": 4894,
      "아끼": 4895,
      "포항": 4896,
      "총회": 4897,
      "##신문": 4898,
      "는데요": 4899,
      "경향": 4900,
      "도저히": 4901,
      "전원": 4902,
      "필리": 4903,
      "참가자": 4904,
      "당일": 4905,
      "중견": 4906,
      "농식품부": 4907,
      "저작": 4908,
      "니까요": 4909,
      "그만큼": 4910,
      "분기": 4911,
      "종이": 4912,
      "부자": 4913,
      "시군": 4914,
      "그간": 4915,
      "단어": 4916,
      "국립공원": 4917,
      "몰리": 4918,
      "비난": 4919,
      "연관": 4920,
      "천안": 4921,
      "도발": 4922,
      "별로": 4923,
      "후손": 4924,
      "베이": 4925,
      "출판": 4926,
      "휴대폰": 4927,
      "부작": 4928,
      "부양": 4929,
      "##평등": 4930,
      "월세": 4931,
      "응시": 4932,
      "즐겁": 4933,
      "신속히": 4934,
      "거절": 4935,
      "변동": 4936,
      "산하": 4937,
      "임기": 4938,
      "제하": 4939,
      "한정": 4940,
      "발전소": 4941,
      "당당": 4942,
      "각국": 4943,
      "원격": 4944,
      "기독교": 4945,
      "끝내": 4946,
      "이송": 4947,
      "직종": 4948,
      "점령": 4949,
      "에어컨": 4950,
      "##켜보": 4951,
      "실력": 4952,
      "##거래": 4953,
      "붕괴": 4954,
      "상위": 4955,
      "조회": 4956,
      "느라": 4957,
      "명백": 4958,
      "도덕": 4959,
      "다이": 4960,
      "가계": 4961,
      "전개": 4962,
      "가량": 4963,
      "미루": 4964,
      "가난": 4965,
      "뉴욕": 4966,
      "고대": 4967,
      "후반": 4968,
      "##하루": 4969,
      "##산업": 4970,
      "의장": 4971,
      "37": 4972,
      "기지": 4973,
      "간절": 4974,
      "우편": 4975,
      "상향": 4976,
      "어선": 4977,
      "오직": 4978,
      "블록": 4979,
      "항의": 4980,
      "##스티": 4981,
      "여가": 4982,
      "##주택": 4983,
      "모시": 4984,
      "계열": 4985,
      "##자원": 4986,
      "출동": 4987,
      "클럽": 4988,
      "대대": 4989,
      "해고": 4990,
      "살아": 4991,
      "지켜보": 4992,
      "사찰": 4993,
      "시리즈": 4994,
      "네이버": 4995,
      "국장": 4996,
      "민생": 4997,
      "##여금": 4998,
      "교복": 4999,
      "고정": 5000,
      "창작": 5001,
      "##병원": 5002,
      "소유자": 5003,
      "동향": 5004,
      "스토": 5005,
      "체포": 5006,
      "그만두": 5007,
      "객관": 5008,
      "수거": 5009,
      "오늘날": 5010,
      "공평": 5011,
      "중장": 5012,
      "일원": 5013,
      "개입": 5014,
      "시공": 5015,
      "태풍": 5016,
      "보건소": 5017,
      "학술": 5018,
      "작동": 5019,
      "금년": 5020,
      "인터뷰": 5021,
      "민관": 5022,
      "충청": 5023,
      "재활": 5024,
      "성폭행": 5025,
      "##으로": 5026,
      "부작용": 5027,
      "힘쓰": 5028,
      "부스": 5029,
      "유튜브": 5030,
      "식민": 5031,
      "관점": 5032,
      "사료": 5033,
      "와이": 5034,
      "유아": 5035,
      "반성": 5036,
      "##환경": 5037,
      "이력": 5038,
      "엄중": 5039,
      "카메라": 5040,
      "급격": 5041,
      "도구": 5042,
      "풍부": 5043,
      "##연히": 5044,
      "##화문": 5045,
      "열정": 5046,
      "답니다": 5047,
      "통치": 5048,
      "이명박": 5049,
      "취임": 5050,
      "항공사": 5051,
      "타인": 5052,
      "하루하루": 5053,
      "김영": 5054,
      "##버리": 5055,
      "외교부": 5056,
      "단절": 5057,
      "애국": 5058,
      "189": 5059,
      "억제": 5060,
      "##겨나": 5061,
      "지난달": 5062,
      "공통": 5063,
      "넘치": 5064,
      "##보험": 5065,
      "비핵": 5066,
      "서명": 5067,
      "아세": 5068,
      "막대": 5069,
      "39": 5070,
      "종종": 5071,
      "소방관": 5072,
      "사무소": 5073,
      "##매매": 5074,
      "골목": 5075,
      "하이": 5076,
      "장려금": 5077,
      "건전": 5078,
      "메이": 5079,
      "상하": 5080,
      "지치": 5081,
      "건조": 5082,
      "절실": 5083,
      "충족": 5084,
      "보행": 5085,
      "개시": 5086,
      "형편": 5087,
      "활력": 5088,
      "팀장": 5089,
      "로드": 5090,
      "배정": 5091,
      "선호": 5092,
      "연맹": 5093,
      "왕국": 5094,
      "하도급": 5095,
      "##시간": 5096,
      "협의체": 5097,
      "미흡": 5098,
      "근대": 5099,
      "대북": 5100,
      "경상북도": 5101,
      "##TA": 5102,
      "속이": 5103,
      "비슷하": 5104,
      "강연": 5105,
      "국적": 5106,
      "인문": 5107,
      "장면": 5108,
      "ICT": 5109,
      "끼치": 5110,
      "임대료": 5111,
      "궁금하": 5112,
      "착수": 5113,
      "화면": 5114,
      "과세": 5115,
      "한도": 5116,
      "##아버지": 5117,
      "사령": 5118,
      "위성": 5119,
      "조각": 5120,
      "가수": 5121,
      "임차": 5122,
      "##기구": 5123,
      "초등학생": 5124,
      "마케팅": 5125,
      "머물": 5126,
      "트럼": 5127,
      "##터리": 5128,
      "장학금": 5129,
      "예고": 5130,
      "체불": 5131,
      "밴드": 5132,
      "슈퍼": 5133,
      "##마자": 5134,
      "드라마": 5135,
      "대피": 5136,
      "상가": 5137,
      "지수": 5138,
      "용어": 5139,
      "가로": 5140,
      "입구": 5141,
      "전라": 5142,
      "불량": 5143,
      "비서": 5144,
      "##은이": 5145,
      "그나마": 5146,
      "이민": 5147,
      "간호": 5148,
      "라인": 5149,
      "구성원": 5150,
      "내역": 5151,
      "교원": 5152,
      "##의자": 5153,
      "뜨겁": 5154,
      "백만": 5155,
      "승객": 5156,
      "입증": 5157,
      "훌륭": 5158,
      "상업": 5159,
      "경주": 5160,
      "촉구": 5161,
      "남한": 5162,
      "야생": 5163,
      "출퇴": 5164,
      "##관계": 5165,
      "권익위": 5166,
      "북부": 5167,
      "머무르": 5168,
      "아쉽": 5169,
      "핸드": 5170,
      "출퇴근": 5171,
      "대단": 5172,
      "당초": 5173,
      "도약": 5174,
      "치유": 5175,
      "온실": 5176,
      "심정": 5177,
      "##카오": 5178,
      "재미": 5179,
      "만행": 5180,
      "2022": 5181,
      "왜냐": 5182,
      "오픈": 5183,
      "똑같이": 5184,
      "각자": 5185,
      "아시": 5186,
      "충북": 5187,
      "표면": 5188,
      "결의": 5189,
      "세탁": 5190,
      "참으로": 5191,
      "정확히": 5192,
      "41": 5193,
      "본부장": 5194,
      "유망": 5195,
      "저항": 5196,
      "수백": 5197,
      "확립": 5198,
      "매체": 5199,
      "##메달": 5200,
      "400": 5201,
      "발명": 5202,
      "수습": 5203,
      "신라": 5204,
      "실망": 5205,
      "진심": 5206,
      "형평": 5207,
      "벌써": 5208,
      "꾸미": 5209,
      "찾아보": 5210,
      "중고": 5211,
      "사법부": 5212,
      "추경": 5213,
      "##르트": 5214,
      "2004": 5215,
      "방제": 5216,
      "태양광": 5217,
      "##바이트": 5218,
      "입시": 5219,
      "헌신": 5220,
      "후기": 5221,
      "무겁": 5222,
      "국세": 5223,
      "인명": 5224,
      "탑승": 5225,
      "기소": 5226,
      "##테이": 5227,
      "도중": 5228,
      "가볍": 5229,
      "가져가": 5230,
      "어다": 5231,
      "##다르": 5232,
      "성매매": 5233,
      "부디": 5234,
      "주일": 5235,
      "한류": 5236,
      "##위원회": 5237,
      "간부": 5238,
      "간곡": 5239,
      "살피": 5240,
      "다녀오": 5241,
      "수송": 5242,
      "접속": 5243,
      "조두": 5244,
      "멘토": 5245,
      "태극": 5246,
      "양육비": 5247,
      "통행": 5248,
      "배송": 5249,
      "전후": 5250,
      "폭염": 5251,
      "조두순": 5252,
      "특구": 5253,
      "가입자": 5254,
      "##시장": 5255,
      "청탁": 5256,
      "광화문": 5257,
      "트럼프": 5258,
      "숨기": 5259,
      "입대": 5260,
      "매달": 5261,
      "탄핵": 5262,
      "##ECD": 5263,
      "시설물": 5264,
      "앞장": 5265,
      "양도": 5266,
      "중지": 5267,
      "OECD": 5268,
      "부실": 5269,
      "감당": 5270,
      "연습": 5271,
      "식품부": 5272,
      "치안": 5273,
      "대학원": 5274,
      "폭발": 5275,
      "비트": 5276,
      "주최": 5277,
      "상실": 5278,
      "##도시": 5279,
      "친화": 5280,
      "자마자": 5281,
      "무인": 5282,
      "##서트": 5283,
      "아르바이트": 5284,
      "플라스": 5285,
      "생성": 5286,
      "##운동": 5287,
      "선출직": 5288,
      "##운드": 5289,
      "##워하": 5290,
      "유용": 5291,
      "직후": 5292,
      "국산": 5293,
      "윤리": 5294,
      "계단": 5295,
      "51": 5296,
      "암호": 5297,
      "한마": 5298,
      "재직": 5299,
      "소지": 5300,
      "조약": 5301,
      "도모": 5302,
      "저런": 5303,
      "환영": 5304,
      "진흥청": 5305,
      "스위스": 5306,
      "연예": 5307,
      "예외": 5308,
      "재료": 5309,
      "런던": 5310,
      "잖아요": 5311,
      "보건복지": 5312,
      "일관": 5313,
      "교통사고": 5314,
      "상세": 5315,
      "승강": 5316,
      "의료진": 5317,
      "긴장": 5318,
      "역학": 5319,
      "나뉘": 5320,
      "세무": 5321,
      "위법": 5322,
      "내려오": 5323,
      "한국어": 5324,
      "오프": 5325,
      "회수": 5326,
      "개헌": 5327,
      "##가락": 5328,
      "##려주": 5329,
      "고양이": 5330,
      "면적": 5331,
      "##받침": 5332,
      "으려고": 5333,
      "마당": 5334,
      "원리": 5335,
      "쌓이": 5336,
      "저축": 5337,
      "유적": 5338,
      "퍼지": 5339,
      "더라고": 5340,
      "##디아": 5341,
      "42": 5342,
      "선임": 5343,
      "##하면": 5344,
      "자국": 5345,
      "젊은이": 5346,
      "주주": 5347,
      "공작": 5348,
      "대답": 5349,
      "자꾸": 5350,
      "정서": 5351,
      "회생": 5352,
      "62": 5353,
      "일하": 5354,
      "파트": 5355,
      "해지": 5356,
      "##시티": 5357,
      "##려오": 5358,
      "수영": 5359,
      "합치": 5360,
      "##중앙": 5361,
      "부착": 5362,
      "테스트": 5363,
      "고유": 5364,
      "포르": 5365,
      "신청서": 5366,
      "유물": 5367,
      "유린": 5368,
      "일자": 5369,
      "멀리": 5370,
      "주력": 5371,
      "추적": 5372,
      "유학": 5373,
      "보건복지부": 5374,
      "보증금": 5375,
      "비전": 5376,
      "그치": 5377,
      "모범": 5378,
      "2002": 5379,
      "가축": 5380,
      "48": 5381,
      "거든": 5382,
      "대가": 5383,
      "자원부": 5384,
      "수상자": 5385,
      "도망": 5386,
      "며칠": 5387,
      "물어": 5388,
      "가시": 5389,
      "조명": 5390,
      "열악": 5391,
      "몽골": 5392,
      "부장": 5393,
      "연안": 5394,
      "에게서": 5395,
      "대량": 5396,
      "종전": 5397,
      "돌아": 5398,
      "외면": 5399,
      "가짜": 5400,
      "동기": 5401,
      "이수": 5402,
      "라면서": 5403,
      "구직": 5404,
      "##회의": 5405,
      "야당": 5406,
      "LH": 5407,
      "작물": 5408,
      "탐방": 5409,
      "정세": 5410,
      "밀리": 5411,
      "용도": 5412,
      "재원": 5413,
      "오토": 5414,
      "119": 5415,
      "개체": 5416,
      "굳이": 5417,
      "강점": 5418,
      "처방": 5419,
      "상용": 5420,
      "필리핀": 5421,
      "독재": 5422,
      "##정보": 5423,
      "가산": 5424,
      "증대": 5425,
      "기한": 5426,
      "박탈": 5427,
      "셋째": 5428,
      "마디": 5429,
      "예쁘": 5430,
      "짜리": 5431,
      "하천": 5432,
      "##려가": 5433,
      "아세안": 5434,
      "진학": 5435,
      "찬성": 5436,
      "납품": 5437,
      "증권": 5438,
      "##덜란드": 5439,
      "가혹": 5440,
      "무단": 5441,
      "스키": 5442,
      "비즈": 5443,
      "누르": 5444,
      "축하": 5445,
      "지리": 5446,
      "플라스틱": 5447,
      "FTA": 5448,
      "꿈꾸": 5449,
      "귀국": 5450,
      "양자": 5451,
      "이리": 5452,
      "급하": 5453,
      "네덜란드": 5454,
      "배제": 5455,
      "##아이": 5456,
      "피우": 5457,
      "다자": 5458,
      "##니어": 5459,
      "검역": 5460,
      "##레일": 5461,
      "에스": 5462,
      "분포": 5463,
      "철학": 5464,
      "##뉴얼": 5465,
      "음식점": 5466,
      "무형": 5467,
      "오른": 5468,
      "대중교통": 5469,
      "원자력": 5470,
      "저렴하": 5471,
      "대장": 5472,
      "헬기": 5473,
      "조속히": 5474,
      "2003": 5475,
      "사원": 5476,
      "소화": 5477,
      "뒷받침": 5478,
      "고르": 5479,
      "지사": 5480,
      "경유": 5481,
      "데뷔": 5482,
      "보강": 5483,
      "##세대": 5484,
      "4000": 5485,
      "재개": 5486,
      "명단": 5487,
      "소외": 5488,
      "이틀": 5489,
      "하위": 5490,
      "55": 5491,
      "의학": 5492,
      "가속": 5493,
      "조합원": 5494,
      "영향력": 5495,
      "이중": 5496,
      "만족도": 5497,
      "건수": 5498,
      "패키": 5499,
      "로스": 5500,
      "무장": 5501,
      "비자": 5502,
      "화상": 5503,
      "연차": 5504,
      "정통": 5505,
      "ᆫ들": 5506,
      "구상": 5507,
      "명목": 5508,
      "바보": 5509,
      "현역": 5510,
      "초래": 5511,
      "지향": 5512,
      "기법": 5513,
      "가문": 5514,
      "북쪽": 5515,
      "차리": 5516,
      "개척": 5517,
      "위안부": 5518,
      "초반": 5519,
      "친일": 5520,
      "기념식": 5521,
      "귀족": 5522,
      "서부": 5523,
      "카카오": 5524,
      "용품": 5525,
      "의뢰": 5526,
      "특권": 5527,
      "병력": 5528,
      "##미나": 5529,
      "내외": 5530,
      "무지": 5531,
      "입력": 5532,
      "내려가": 5533,
      "구나": 5534,
      "예비군": 5535,
      "농민": 5536,
      "반환": 5537,
      "깔끔": 5538,
      "단독": 5539,
      "출장": 5540,
      "공조": 5541,
      "롯데": 5542,
      "##ㅋㅋ": 5543,
      "앞장서": 5544,
      "승진": 5545,
      "조류": 5546,
      "##운전": 5547,
      "급증": 5548,
      "왜곡": 5549,
      "철거": 5550,
      "밀집": 5551,
      "고리": 5552,
      "공중": 5553,
      "라니": 5554,
      "즉각": 5555,
      "##박물관": 5556,
      "이득": 5557,
      "도쿄": 5558,
      "진보": 5559,
      "수확": 5560,
      "##말로": 5561,
      "ᆫ지요": 5562,
      "물어보": 5563,
      "간곡히": 5564,
      "학과": 5565,
      "한마디": 5566,
      "결함": 5567,
      "학위": 5568,
      "고충": 5569,
      "패키지": 5570,
      "분산": 5571,
      "음성": 5572,
      "세종시": 5573,
      "간접": 5574,
      "##CTV": 5575,
      "PC": 5576,
      "리라": 5577,
      "남쪽": 5578,
      "는지요": 5579,
      "자치부": 5580,
      "면역": 5581,
      "블랙": 5582,
      "CCTV": 5583,
      "체크인": 5584,
      "고구": 5585,
      "날리": 5586,
      "심장": 5587,
      "흔히": 5588,
      "구직자": 5589,
      "설득": 5590,
      "심화": 5591,
      "위로": 5592,
      "##베이터": 5593,
      "아카": 5594,
      "원천": 5595,
      "##리트": 5596,
      "토론회": 5597,
      "43": 5598,
      "##바로": 5599,
      "리콜": 5600,
      "유연": 5601,
      "흥미": 5602,
      "횡단": 5603,
      "거든요": 5604,
      "융자": 5605,
      "75": 5606,
      "내수": 5607,
      "시골": 5608,
      "피의자": 5609,
      "##재단": 5610,
      "가끔": 5611,
      "태국": 5612,
      "##다보": 5613,
      "##산시": 5614,
      "폐업": 5615,
      "조심": 5616,
      "중화": 5617,
      "1990": 5618,
      "견디": 5619,
      "녹음": 5620,
      "##뮤니": 5621,
      "소문": 5622,
      "산업부": 5623,
      "아우르": 5624,
      "임산": 5625,
      "조종": 5626,
      "이사장": 5627,
      "농도": 5628,
      "자극": 5629,
      "허리": 5630,
      "##한국": 5631,
      "보호자": 5632,
      "자립": 5633,
      "120": 5634,
      "점심": 5635,
      "내세우": 5636,
      "오류": 5637,
      "조국": 5638,
      "종일": 5639,
      "충실": 5640,
      "아시안": 5641,
      "도출": 5642,
      "리더": 5643,
      "데이": 5644,
      "분열": 5645,
      "##항공": 5646,
      "지명": 5647,
      "이성": 5648,
      "왕조": 5649,
      "자행": 5650,
      "##네시아": 5651,
      "고작": 5652,
      "떠오르": 5653,
      "인턴": 5654,
      "재발": 5655,
      "지우": 5656,
      "커뮤니": 5657,
      "##징금": 5658,
      "개성": 5659,
      "체력": 5660,
      "언제나": 5661,
      "44": 5662,
      "동부": 5663,
      "유니": 5664,
      "중복": 5665,
      "보복": 5666,
      "핸드폰": 5667,
      "##부부": 5668,
      "내내": 5669,
      "주방": 5670,
      "##지방": 5671,
      "깊이": 5672,
      "가만": 5673,
      "임산부": 5674,
      "증명서": 5675,
      "입주자": 5676,
      "수산물": 5677,
      "교과서": 5678,
      "코드": 5679,
      "6000": 5680,
      "그러므로": 5681,
      "세제": 5682,
      "지경": 5683,
      "고등학생": 5684,
      "청장": 5685,
      "##일보": 5686,
      "과감": 5687,
      "포인트": 5688,
      "대륙": 5689,
      "성희": 5690,
      "##공화국": 5691,
      "상대방": 5692,
      "신혼부부": 5693,
      "응답": 5694,
      "보험사": 5695,
      "밀접": 5696,
      "파렴": 5697,
      "파렴치": 5698,
      "동북": 5699,
      "감옥": 5700,
      "독자": 5701,
      "해설": 5702,
      "##시코": 5703,
      "188": 5704,
      "공군": 5705,
      "성희롱": 5706,
      "적자": 5707,
      "단장": 5708,
      "휴일": 5709,
      "성립": 5710,
      "##동차": 5711,
      "농어": 5712,
      "상금": 5713,
      "자세히": 5714,
      "해방": 5715,
      "동성": 5716,
      "전시회": 5717,
      "스케": 5718,
      "호주": 5719,
      "##한국당": 5720,
      "표기": 5721,
      "##톨릭": 5722,
      "교도": 5723,
      "학업": 5724,
      "왜냐하면": 5725,
      "부끄럽": 5726,
      "강아지": 5727,
      "동해": 5728,
      "바치": 5729,
      "취재": 5730,
      "누적": 5731,
      "##진흥원": 5732,
      "단백": 5733,
      "용산": 5734,
      "##란히": 5735,
      "매번": 5736,
      "소형": 5737,
      "외출": 5738,
      "캠프": 5739,
      "직전": 5740,
      "##년자": 5741,
      "회원국": 5742,
      "인센": 5743,
      "터널": 5744,
      "인센티브": 5745,
      "국군": 5746,
      "국공": 5747,
      "농협": 5748,
      "기르": 5749,
      "계절": 5750,
      "협동": 5751,
      "둘러보": 5752,
      "보좌": 5753,
      "실장": 5754,
      "저하": 5755,
      "흡수": 5756,
      "특허청": 5757,
      "##퍼스": 5758,
      "황당": 5759,
      "흡연자": 5760,
      "공문": 5761,
      "##시마": 5762,
      "##구니": 5763,
      "던가": 5764,
      "문화유산": 5765,
      "깨닫": 5766,
      "야외": 5767,
      "출자": 5768,
      "##스피": 5769,
      "농사": 5770,
      "압력": 5771,
      "##리지": 5772,
      "무도": 5773,
      "기차": 5774,
      "서면": 5775,
      "##메리카": 5776,
      "1980": 5777,
      "대국민": 5778,
      "할아버지": 5779,
      "이달": 5780,
      "양산": 5781,
      "사교육": 5782,
      "##크로": 5783,
      "불교": 5784,
      "애기": 5785,
      "##NA": 5786,
      "우대": 5787,
      "테이": 5788,
      "과실": 5789,
      "마감": 5790,
      "하우스": 5791,
      "놓치": 5792,
      "이산": 5793,
      "식민지": 5794,
      "패럴": 5795,
      "##인민": 5796,
      "마주": 5797,
      "발휘": 5798,
      "꼬리": 5799,
      "정산": 5800,
      "패배": 5801,
      "행안부": 5802,
      "소설": 5803,
      "트럭": 5804,
      "행정부": 5805,
      "강력히": 5806,
      "불가피": 5807,
      "동남": 5808,
      "무능": 5809,
      "포용": 5810,
      "소위": 5811,
      "##욕장": 5812,
      "경보": 5813,
      "북미": 5814,
      "통지": 5815,
      "끌어": 5816,
      "납득": 5817,
      "등교": 5818,
      "세미나": 5819,
      "오랫": 5820,
      "46": 5821,
      "##권자": 5822,
      "유효": 5823,
      "타격": 5824,
      "보호법": 5825,
      "발간": 5826,
      "크리스": 5827,
      "허락": 5828,
      "논문": 5829,
      "초대": 5830,
      "에서부터": 5831,
      "공예": 5832,
      "집합": 5833,
      "나름": 5834,
      "총장": 5835,
      "안녕하": 5836,
      "으니까요": 5837,
      "고의": 5838,
      "철수": 5839,
      "축사": 5840,
      "징수": 5841,
      "생겨나": 5842,
      "사육": 5843,
      "고장": 5844,
      "매월": 5845,
      "줄기": 5846,
      "##평양": 5847,
      "대외": 5848,
      "최악": 5849,
      "미안": 5850,
      "다중": 5851,
      "과징금": 5852,
      "반발": 5853,
      "다섯": 5854,
      "면담": 5855,
      "중계": 5856,
      "자유한국당": 5857,
      "콘서트": 5858,
      "패럴림픽": 5859,
      "미약": 5860,
      "길거리": 5861,
      "일주": 5862,
      "##경찰": 5863,
      "관료": 5864,
      "주사": 5865,
      "프레": 5866,
      "##사우": 5867,
      "##이즈": 5868,
      "원산": 5869,
      "무력": 5870,
      "준공": 5871,
      "편지": 5872,
      "단백질": 5873,
      "달라": 5874,
      "공무": 5875,
      "노무현": 5876,
      "시선": 5877,
      "인도네시아": 5878,
      "한중": 5879,
      "핵무": 5880,
      "##테크": 5881,
      "곤충": 5882,
      "타운": 5883,
      "서해": 5884,
      "발주": 5885,
      "기조": 5886,
      "자본주의": 5887,
      "움직임": 5888,
      "생체": 5889,
      "기득": 5890,
      "마약": 5891,
      "특혜": 5892,
      "하청": 5893,
      "등록금": 5894,
      "대립": 5895,
      "환불": 5896,
      "1970": 5897,
      "성화": 5898,
      "오랫동안": 5899,
      "등기": 5900,
      "동행": 5901,
      "주한": 5902,
      "퇴사": 5903,
      "독서": 5904,
      "양질": 5905,
      "집권": 5906,
      "폴란드": 5907,
      "시세": 5908,
      "포괄": 5909,
      "되돌": 5910,
      "표지": 5911,
      "비즈니스": 5912,
      "안녕하세요": 5913,
      "계급": 5914,
      "마침": 5915,
      "임원": 5916,
      "파이": 5917,
      "가중": 5918,
      "한층": 5919,
      "훈장": 5920,
      "미투": 5921,
      "분별": 5922,
      "전선": 5923,
      "계약직": 5924,
      "발령": 5925,
      "성남": 5926,
      "##웨이": 5927,
      "반려동물": 5928,
      "순수": 5929,
      "커녕": 5930,
      "영원": 5931,
      "혐오": 5932,
      "농업인": 5933,
      "공학": 5934,
      "제보": 5935,
      "고스": 5936,
      "한복": 5937,
      "##ㅡㅡ": 5938,
      "이의": 5939,
      "미터": 5940,
      "법관": 5941,
      "해운": 5942,
      "손상": 5943,
      "수천": 5944,
      "600": 5945,
      "넓히": 5946,
      "제어": 5947,
      "처절": 5948,
      "합병": 5949,
      "스웨": 5950,
      "시원": 5951,
      "환급": 5952,
      "##자부": 5953,
      "##워드": 5954,
      "비행기": 5955,
      "게끔": 5956,
      "해역": 5957,
      "##올리": 5958,
      "더럽": 5959,
      "교대": 5960,
      "날짜": 5961,
      "생애": 5962,
      "인민": 5963,
      "##BC": 5964,
      "본래": 5965,
      "석유": 5966,
      "더라구요": 5967,
      "부위": 5968,
      "틀리": 5969,
      "남용": 5970,
      "비록": 5971,
      "애초": 5972,
      "신종": 5973,
      "전주": 5974,
      "천연": 5975,
      "##추행": 5976,
      "사물": 5977,
      "일치": 5978,
      "장식": 5979,
      "규명": 5980,
      "등재": 5981,
      "성추행": 5982,
      "제목": 5983,
      "##라우드": 5984,
      "비닐": 5985,
      "인플": 5986,
      "화합": 5987,
      "연예인": 5988,
      "감수": 5989,
      "섭취": 5990,
      "심신": 5991,
      "행성": 5992,
      "배우자": 5993,
      "가뭄": 5994,
      "둘러싸": 5995,
      "태극기": 5996,
      "번영": 5997,
      "계승": 5998,
      "##특별": 5999,
      "국경": 6000,
      "조지": 6001,
      "재벌": 6002,
      "주가": 6003,
      "목록": 6004,
      "교통안전": 6005,
      "세입": 6006,
      "##스럽": 6007,
      "유족": 6008,
      "참석자": 6009,
      "청취": 6010,
      "경과": 6011,
      "그곳": 6012,
      "은퇴": 6013,
      "태우": 6014,
      "47": 6015,
      "무죄": 6016,
      "분할": 6017,
      "횟수": 6018,
      "##피아": 6019,
      "페이스": 6020,
      "풀리": 6021,
      "끊임": 6022,
      "ᆫ다면서": 6023,
      "영유": 6024,
      "해수욕장": 6025,
      "당첨": 6026,
      "##글랜드": 6027,
      "멋지": 6028,
      "비치": 6029,
      "유대": 6030,
      "정류": 6031,
      "간소": 6032,
      "180": 6033,
      "시군구": 6034,
      "정말로": 6035,
      "법제": 6036,
      "중독": 6037,
      "치료제": 6038,
      "일주일": 6039,
      "극악": 6040,
      "확률": 6041,
      "일선": 6042,
      "전액": 6043,
      "##레인": 6044,
      "##화점": 6045,
      "국민신문": 6046,
      "호흡기": 6047,
      "국민신문고": 6048,
      "경감": 6049,
      "공업": 6050,
      "국왕": 6051,
      "청정": 6052,
      "정년": 6053,
      "차장": 6054,
      "스웨덴": 6055,
      "상표": 6056,
      "옛날": 6057,
      "##구요": 6058,
      "우울증": 6059,
      "한시": 6060,
      "장교": 6061,
      "전제": 6062,
      "주부": 6063,
      "페미니즘": 6064,
      "7000": 6065,
      "간주": 6066,
      "명분": 6067,
      "백제": 6068,
      "위상": 6069,
      "투어": 6070,
      "선사": 6071,
      "획기": 6072,
      "국공립": 6073,
      "다음날": 6074,
      "혈액": 6075,
      "교부": 6076,
      "오프라인": 6077,
      "소용": 6078,
      "입지": 6079,
      "##전자": 6080,
      "수면": 6081,
      "순서": 6082,
      "입히": 6083,
      "이스": 6084,
      "자르": 6085,
      "중반": 6086,
      "표명": 6087,
      "멕시코": 6088,
      "중동": 6089,
      "무척": 6090,
      "수색": 6091,
      "가맹점": 6092,
      "감동": 6093,
      "구글": 6094,
      "1960": 6095,
      "타워": 6096,
      "##19": 6097,
      "일일": 6098,
      "권위": 6099,
      "애니": 6100,
      "어깨": 6101,
      "공산주의": 6102,
      "가톨릭": 6103,
      "구멍": 6104,
      "관객": 6105,
      "##과학원": 6106,
      "구급": 6107,
      "한강": 6108,
      "##천시": 6109,
      "가이드라인": 6110,
      "결승": 6111,
      "무관": 6112,
      "선포": 6113,
      "신고자": 6114,
      "어차": 6115,
      "##법원": 6116,
      "주인공": 6117,
      "##개발": 6118,
      "창구": 6119,
      "침체": 6120,
      "캠퍼스": 6121,
      "꼼꼼": 6122,
      "무렵": 6123,
      "요령": 6124,
      "어차피": 6125,
      "차선": 6126,
      "최적": 6127,
      "울리": 6128,
      "편입": 6129,
      "요새": 6130,
      "##하우": 6131,
      "기피": 6132,
      "법규": 6133,
      "상속": 6134,
      "SK": 6135,
      "최신": 6136,
      "##FA": 6137,
      "확실히": 6138,
      "과일": 6139,
      "억지": 6140,
      "탈락": 6141,
      "신분증": 6142,
      "압류": 6143,
      "김포": 6144,
      "매주": 6145,
      "민사": 6146,
      "분자": 6147,
      "파트너": 6148,
      "정례": 6149,
      "##조선": 6150,
      "극단": 6151,
      "식약": 6152,
      "좌석": 6153,
      "##두르": 6154,
      "일삼": 6155,
      "기도": 6156,
      "석탄": 6157,
      "음반": 6158,
      "##체인": 6159,
      "재능": 6160,
      "진압": 6161,
      "직위": 6162,
      "확신": 6163,
      "회피": 6164,
      "해결책": 6165,
      "상관없이": 6166,
      "56": 6167,
      "기름": 6168,
      "획기적": 6169,
      "곤란": 6170,
      "착하": 6171,
      "연구자": 6172,
      "고속도로": 6173,
      "국세청": 6174,
      "박정": 6175,
      "채취": 6176,
      "환수": 6177,
      "##파이": 6178,
      "종자": 6179,
      "페르": 6180,
      "##휴일": 6181,
      "투수": 6182,
      "온실가스": 6183,
      "강구": 6184,
      "산학": 6185,
      "2001": 6186,
      "고교": 6187,
      "핑계": 6188,
      "##놀이": 6189,
      "공휴일": 6190,
      "##세종": 6191,
      "생활비": 6192,
      "김치": 6193,
      "##트로": 6194,
      "##일랜드": 6195,
      "대원": 6196,
      "와중": 6197,
      "드러내": 6198,
      "오리": 6199,
      "회전": 6200,
      "##실장": 6201,
      "결성": 6202,
      "매뉴얼": 6203,
      "으라고": 6204,
      "##피언": 6205,
      "반란": 6206,
      "돌아다니": 6207,
      "금속": 6208,
      "보편": 6209,
      "고급": 6210,
      "맞서": 6211,
      "소액": 6212,
      "어둡": 6213,
      "블록체인": 6214,
      "금번": 6215,
      "원주": 6216,
      "1995": 6217,
      "넘어서": 6218,
      "8000": 6219,
      "인성": 6220,
      "학문": 6221,
      "후보자": 6222,
      "캐릭": 6223,
      "수록": 6224,
      "바람직": 6225,
      "조업": 6226,
      "영구": 6227,
      "리모": 6228,
      "매력": 6229,
      "총선": 6230,
      "형량": 6231,
      "##사관": 6232,
      "사회주의": 6233,
      "착공": 6234,
      "홍콩": 6235,
      "아이스": 6236,
      "기재부": 6237,
      "업소": 6238,
      "고구려": 6239,
      "교차": 6240,
      "피아": 6241,
      "##로그": 6242,
      "오스트리아": 6243,
      "부진": 6244,
      "살아오": 6245,
      "##부르크": 6246,
      "말리": 6247,
      "법치": 6248,
      "화장품": 6249,
      "평양": 6250,
      "대선": 6251,
      "본질": 6252,
      "주자": 6253,
      "폭등": 6254,
      "시상식": 6255,
      "죄송": 6256,
      "안전망": 6257,
      "##연구소": 6258,
      "##순환": 6259,
      "순찰": 6260,
      "잉글랜드": 6261,
      "매수": 6262,
      "시끄럽": 6263,
      "위촉": 6264,
      "화성": 6265,
      "중순": 6266,
      "캐릭터": 6267,
      "스튜": 6268,
      "자회사": 6269,
      "탈출": 6270,
      "페이지": 6271,
      "해수부": 6272,
      "서쪽": 6273,
      "예요": 6274,
      "통증": 6275,
      "행자부": 6276,
      "49": 6277,
      "노리": 6278,
      "적당": 6279,
      "환기": 6280,
      "186": 6281,
      "##생물": 6282,
      "임차인": 6283,
      "홈런": 6284,
      "브라질": 6285,
      "시인": 6286,
      "테마": 6287,
      "실명": 6288,
      "투쟁": 6289,
      "화물차": 6290,
      "수질": 6291,
      "주권": 6292,
      "장악": 6293,
      "방과": 6294,
      "##보내": 6295,
      "##OC": 6296,
      "오른쪽": 6297,
      "54": 6298,
      "아픔": 6299,
      "퇴직금": 6300,
      "어촌": 6301,
      "##시험": 6302,
      "고가": 6303,
      "본선": 6304,
      "서구": 6305,
      "번역": 6306,
      "시술": 6307,
      "정부세종": 6308,
      "정부세종청사": 6309,
      "챔피언": 6310,
      "급속": 6311,
      "자부": 6312,
      "##스리": 6313,
      "공헌": 6314,
      "##집트": 6315,
      "서양": 6316,
      "풍경": 6317,
      "관여": 6318,
      "면밀": 6319,
      "아웃": 6320,
      "정화": 6321,
      "미술관": 6322,
      "##민주당": 6323,
      "정류장": 6324,
      "뛰어": 6325,
      "링크": 6326,
      "매도": 6327,
      "어울": 6328,
      "토양": 6329,
      "불안감": 6330,
      "약사": 6331,
      "가만히": 6332,
      "선배": 6333,
      "다운": 6334,
      "이념": 6335,
      "저렇": 6336,
      "추락": 6337,
      "##둥이": 6338,
      "그렇지만": 6339,
      "금전": 6340,
      "원료": 6341,
      "다시피": 6342,
      "연체": 6343,
      "연극": 6344,
      "이집트": 6345,
      "홀로": 6346,
      "##스토": 6347,
      "부합": 6348,
      "코인": 6349,
      "콜센터": 6350,
      "생생": 6351,
      "자국민": 6352,
      "책임자": 6353,
      "LG": 6354,
      "위장": 6355,
      "철회": 6356,
      "분배": 6357,
      "모자라": 6358,
      "계곡": 6359,
      "기증": 6360,
      "안건": 6361,
      "동쪽": 6362,
      "경관": 6363,
      "빈번": 6364,
      "알렉": 6365,
      "경진": 6366,
      "##국제": 6367,
      "ㅎㅎ": 6368,
      "감지": 6369,
      "괴롭히": 6370,
      "메달": 6371,
      "금메달": 6372,
      "용인": 6373,
      "응급실": 6374,
      "먹거리": 6375,
      "위축": 6376,
      "유동": 6377,
      "어떻게": 6378,
      "특별법": 6379,
      "모순": 6380,
      "소관": 6381,
      "양해": 6382,
      "중심지": 6383,
      "여권": 6384,
      "도달": 6385,
      "세일": 6386,
      "고맙": 6387,
      "약국": 6388,
      "여당": 6389,
      "스마트시티": 6390,
      "이듬": 6391,
      "동포": 6392,
      "스테": 6393,
      "조장": 6394,
      "여학생": 6395,
      "##임금": 6396,
      "입금": 6397,
      "은폐": 6398,
      "워크숍": 6399,
      "발송": 6400,
      "간절히": 6401,
      "독립운동": 6402,
      "군수": 6403,
      "점포": 6404,
      "횡포": 6405,
      "식약처": 6406,
      "여야": 6407,
      "전산": 6408,
      "##권력": 6409,
      "성별": 6410,
      "치우": 6411,
      "##경제": 6412,
      "##베이": 6413,
      "일본군": 6414,
      "약관": 6415,
      "성당": 6416,
      "##대학": 6417,
      "노고": 6418,
      "원산지": 6419,
      "##대문": 6420,
      "산책": 6421,
      "조화": 6422,
      "시간대": 6423,
      "발열": 6424,
      "##다랗": 6425,
      "망치": 6426,
      "비례": 6427,
      "상한": 6428,
      "연설": 6429,
      "##오스": 6430,
      "돌파": 6431,
      "방탄": 6432,
      "창원": 6433,
      "책정": 6434,
      "보훈처": 6435,
      "위조": 6436,
      "축적": 6437,
      "명확히": 6438,
      "이듬해": 6439,
      "##델링": 6440,
      "샤워": 6441,
      "일용": 6442,
      "리모델링": 6443,
      "##스턴": 6444,
      "창업자": 6445,
      "더불어": 6446,
      "흔들리": 6447,
      "목사": 6448,
      "미성": 6449,
      "##네스코": 6450,
      "최저임금": 6451,
      "##인민공화국": 6452,
      "위임": 6453,
      "총력": 6454,
      "이때": 6455,
      "출석": 6456,
      "믿음": 6457,
      "학회": 6458,
      "의료비": 6459,
      "궤도": 6460,
      "편집": 6461,
      "공지": 6462,
      "대여": 6463,
      "무려": 6464,
      "야기": 6465,
      "##만금": 6466,
      "동등": 6467,
      "유네스코": 6468,
      "판로": 6469,
      "##다시": 6470,
      "아리": 6471,
      "생리대": 6472,
      "과기": 6473,
      "낚시": 6474,
      "재외": 6475,
      "초점": 6476,
      "트리": 6477,
      "교역": 6478,
      "만남": 6479,
      "새만금": 6480,
      "오가": 6481,
      "천문": 6482,
      "비트코": 6483,
      "추방": 6484,
      "187": 6485,
      "주무": 6486,
      "구단": 6487,
      "구호": 6488,
      "##소년": 6489,
      "조세": 6490,
      "고스란히": 6491,
      "수주": 6492,
      "실리": 6493,
      "검정": 6494,
      "유래": 6495,
      "인접": 6496,
      "개개": 6497,
      "쉼터": 6498,
      "위해": 6499,
      "항구": 6500,
      "기술력": 6501,
      "기업인": 6502,
      "통신사": 6503,
      "장기간": 6504,
      "커뮤니티": 6505,
      "나마": 6506,
      "슬로": 6507,
      "1950": 6508,
      "만화": 6509,
      "접목": 6510,
      "중부": 6511,
      "##자동차": 6512,
      "##병대": 6513,
      "##사우루스": 6514,
      "가사": 6515,
      "도보": 6516,
      "발효": 6517,
      "설문": 6518,
      "여름철": 6519,
      "수시로": 6520,
      "무어": 6521,
      "성숙": 6522,
      "싱가": 6523,
      "소멸": 6524,
      "스티": 6525,
      "##티아": 6526,
      "개관": 6527,
      "기숙": 6528,
      "두려움": 6529,
      "신축": 6530,
      "유가족": 6531,
      "ᆷ니다": 6532,
      "상권": 6533,
      "쓰러지": 6534,
      "하계": 6535,
      "수호": 6536,
      "내실": 6537,
      "새기": 6538,
      "신중": 6539,
      "특별히": 6540,
      "다지": 6541,
      "조언": 6542,
      "##러미": 6543,
      "발의": 6544,
      "지르": 6545,
      "청결": 6546,
      "파업": 6547,
      "중국인": 6548,
      "무고하": 6549,
      "문구": 6550,
      "##고리": 6551,
      "섬유": 6552,
      "잠깐": 6553,
      "호기": 6554,
      "대리점": 6555,
      "멤버": 6556,
      "패널": 6557,
      "던데": 6558,
      "추첨": 6559,
      "더러": 6560,
      "목격": 6561,
      "작곡": 6562,
      "출국": 6563,
      "검출": 6564,
      "몰래": 6565,
      "또다시": 6566,
      "순차": 6567,
      "용서": 6568,
      "경복": 6569,
      "핵무기": 6570,
      "스피": 6571,
      "하여금": 6572,
      "예술인": 6573,
      "체납": 6574,
      "##문화재": 6575,
      "모형": 6576,
      "범인": 6577,
      "수강": 6578,
      "구별": 6579,
      "분단": 6580,
      "흔적": 6581,
      "냐는": 6582,
      "제자": 6583,
      "64": 6584,
      "##로드": 6585,
      "신입": 6586,
      "부활": 6587,
      "사리사": 6588,
      "VR": 6589,
      "도지사": 6590,
      "임하": 6591,
      "입단": 6592,
      "판문": 6593,
      "실종": 6594,
      "1999": 6595,
      "사리사욕": 6596,
      "놀랍": 6597,
      "단가": 6598,
      "치열": 6599,
      "골프": 6600,
      "이승": 6601,
      "공감대": 6602,
      "누진": 6603,
      "탄력": 6604,
      "인천공항": 6605,
      "극장": 6606,
      "명소": 6607,
      "##러나": 6608,
      "할당": 6609,
      "호수": 6610,
      "불쌍": 6611,
      "외상": 6612,
      "아카데": 6613,
      "페이스북": 6614,
      "끔찍": 6615,
      "왼쪽": 6616,
      "##당기": 6617,
      "남아": 6618,
      "화려": 6619,
      "##나가": 6620,
      "경복궁": 6621,
      "공권력": 6622,
      "뚜렷": 6623,
      "수장": 6624,
      "입소": 6625,
      "태세": 6626,
      "퇴원": 6627,
      "푸드": 6628,
      "카이": 6629,
      "아마도": 6630,
      "1998": 6631,
      "노하우": 6632,
      "수신": 6633,
      "재무": 6634,
      "##구나": 6635,
      "##카이": 6636,
      "##피스": 6637,
      "##센트": 6638,
      "고사": 6639,
      "용사": 6640,
      "기쁘": 6641,
      "독특": 6642,
      "새끼": 6643,
      "장례": 6644,
      "암호화": 6645,
      "건설사": 6646,
      "어처": 6647,
      "페스티": 6648,
      "학력": 6649,
      "##고등학교": 6650,
      "부담금": 6651,
      "분담": 6652,
      "허브": 6653,
      "##높이": 6654,
      "참여자": 6655,
      "민간인": 6656,
      "강국": 6657,
      "레저": 6658,
      "구비": 6659,
      "징병": 6660,
      "취직": 6661,
      "헬스": 6662,
      "##가리": 6663,
      "##메이션": 6664,
      "만전": 6665,
      "복수": 6666,
      "한두": 6667,
      "답답하": 6668,
      "53": 6669,
      "선원": 6670,
      "질의": 6671,
      "##무소": 6672,
      "프린": 6673,
      "상주": 6674,
      "##트라": 6675,
      "불러": 6676,
      "오스": 6677,
      "오토바이": 6678,
      "강점기": 6679,
      "금강": 6680,
      "독려": 6681,
      "세션": 6682,
      "표본": 6683,
      "##케이션": 6684,
      "대사관": 6685,
      "세입자": 6686,
      "판문점": 6687,
      "어처구니": 6688,
      "장착": 6689,
      "##마스": 6690,
      "엘리베이터": 6691,
      "걸어": 6692,
      "##20": 6693,
      "아카데미": 6694,
      "수고": 6695,
      "태평양": 6696,
      "##정부": 6697,
      "맛있": 6698,
      "텔레": 6699,
      "바우": 6700,
      "박스": 6701,
      "양측": 6702,
      "건국": 6703,
      "고기": 6704,
      "치과": 6705,
      "동작": 6706,
      "한심": 6707,
      "ᆫ데요": 6708,
      "극심": 6709,
      "매각": 6710,
      "역임": 6711,
      "##제품": 6712,
      "안전사고": 6713,
      "인정받": 6714,
      "박정희": 6715,
      "간병": 6716,
      "빈곤": 6717,
      "엄정": 6718,
      "한일": 6719,
      "관리소": 6720,
      "매연": 6721,
      "반하": 6722,
      "승용": 6723,
      "쾌적": 6724,
      "예선": 6725,
      "대변인": 6726,
      "임의": 6727,
      "조상": 6728,
      "로드맵": 6729,
      "낙태": 6730,
      "멸종": 6731,
      "원정": 6732,
      "하수": 6733,
      "##루엔": 6734,
      "고령자": 6735,
      "전시관": 6736,
      "보상금": 6737,
      "페스티벌": 6738,
      "나아지": 6739,
      "정책관": 6740,
      "국외": 6741,
      "다짐": 6742,
      "완공": 6743,
      "아나": 6744,
      "이적": 6745,
      "혼인": 6746,
      "길이": 6747,
      "논쟁": 6748,
      "무용": 6749,
      "전염": 6750,
      "어긋": 6751,
      "클래": 6752,
      "권유": 6753,
      "김성": 6754,
      "모의": 6755,
      "방출": 6756,
      "시중": 6757,
      "##저기": 6758,
      "모욕": 6759,
      "선량": 6760,
      "추억": 6761,
      "휴게소": 6762,
      "이스라": 6763,
      "58": 6764,
      "자세하": 6765,
      "동성애": 6766,
      "갱신": 6767,
      "간편": 6768,
      "##바지": 6769,
      "DNA": 6770,
      "노르": 6771,
      "성향": 6772,
      "유의": 6773,
      "한국판": 6774,
      "비트코인": 6775,
      "담임": 6776,
      "세액": 6777,
      "증언": 6778,
      "다자녀": 6779,
      "250": 6780,
      "어긋나": 6781,
      "이스라엘": 6782,
      "공로": 6783,
      "특이": 6784,
      "폭탄": 6785,
      "공주": 6786,
      "유포": 6787,
      "이용객": 6788,
      "걸음": 6789,
      "엑스": 6790,
      "##스트라": 6791,
      "승강장": 6792,
      "즉위": 6793,
      "묘사": 6794,
      "명문": 6795,
      "만료": 6796,
      "폴리": 6797,
      "군데": 6798,
      "금감": 6799,
      "상영": 6800,
      "탑재": 6801,
      "녹지": 6802,
      "인체": 6803,
      "인테": 6804,
      "크루": 6805,
      "반장": 6806,
      "침략": 6807,
      "신문고": 6808,
      "##누스": 6809,
      "출소": 6810,
      "어울리": 6811,
      "도둑": 6812,
      "중학": 6813,
      "대략": 6814,
      "실감": 6815,
      "주교": 6816,
      "##평가": 6817,
      "지주": 6818,
      "여기저기": 6819,
      "전사": 6820,
      "추후": 6821,
      "##근무": 6822,
      "공산당": 6823,
      "김현": 6824,
      "실업자": 6825,
      "여수": 6826,
      "쇼핑몰": 6827,
      "신앙": 6828,
      "영리": 6829,
      "##임스": 6830,
      "선수단": 6831,
      "기자단": 6832,
      "단점": 6833,
      "아일랜드": 6834,
      "##잡이": 6835,
      "취업자": 6836,
      "영유아": 6837,
      "갑작": 6838,
      "번지": 6839,
      "여지": 6840,
      "##베르": 6841,
      "끊임없이": 6842,
      "절약": 6843,
      "좌우": 6844,
      "그렇게": 6845,
      "손쉽": 6846,
      "1997": 6847,
      "감각": 6848,
      "민감": 6849,
      "##마크": 6850,
      "2030": 6851,
      "상해": 6852,
      "지장": 6853,
      "영웅": 6854,
      "욕설": 6855,
      "##미터": 6856,
      "식량": 6857,
      "인플루엔": 6858,
      "인플루엔자": 6859,
      "광범": 6860,
      "인격": 6861,
      "제로": 6862,
      "##시스": 6863,
      "정통부": 6864,
      "각별": 6865,
      "숙련": 6866,
      "지혜": 6867,
      "토요일": 6868,
      "##마다": 6869,
      "스크": 6870,
      "핀란드": 6871,
      "수요자": 6872,
      "##차례": 6873,
      "##런스": 6874,
      "커다랗": 6875,
      "만지": 6876,
      "간격": 6877,
      "무사": 6878,
      "법조": 6879,
      "플라": 6880,
      "##수저": 6881,
      "기원전": 6882,
      "배수": 6883,
      "한참": 6884,
      "아이템": 6885,
      "112": 6886,
      "라이브": 6887,
      "TF": 6888,
      "견인": 6889,
      "하나님": 6890,
      "개개인": 6891,
      "대항": 6892,
      "비참": 6893,
      "어기": 6894,
      "한식": 6895,
      "서울대": 6896,
      "기숙사": 6897,
      "군요": 6898,
      "잠수": 6899,
      "창설": 6900,
      "##어리": 6901,
      "수비": 6902,
      "일괄": 6903,
      "다채": 6904,
      "진동": 6905,
      "관계없이": 6906,
      "FI": 6907,
      "68": 6908,
      "이라": 6909,
      "한전": 6910,
      "사업비": 6911,
      "다행히": 6912,
      "금감원": 6913,
      "호응": 6914,
      "마크": 6915,
      "메인": 6916,
      "옹호": 6917,
      "익숙": 6918,
      "직면": 6919,
      "포르투": 6920,
      "내각": 6921,
      "미용": 6922,
      "앵커": 6923,
      "##주택자": 6924,
      "살아나": 6925,
      "애니메이션": 6926,
      "침공": 6927,
      "겨울철": 6928,
      "고요": 6929,
      "김대": 6930,
      "강간": 6931,
      "휴양": 6932,
      "57": 6933,
      "뇌물": 6934,
      "만일": 6935,
      "베네": 6936,
      "##마을": 6937,
      "스튜디오": 6938,
      "함정": 6939,
      "자비": 6940,
      "침입": 6941,
      "평일": 6942,
      "복용": 6943,
      "집계": 6944,
      "환승": 6945,
      "아깝": 6946,
      "자재": 6947,
      "채소": 6948,
      "치명": 6949,
      "프로세": 6950,
      "권장": 6951,
      "59": 6952,
      "##경찰서": 6953,
      "카를": 6954,
      "목재": 6955,
      "효력": 6956,
      "##주교": 6957,
      "독점": 6958,
      "창고": 6959,
      "00": 6960,
      "여의": 6961,
      "일체": 6962,
      "소득세": 6963,
      "KTX": 6964,
      "사우": 6965,
      "백화점": 6966,
      "부하": 6967,
      "##의회": 6968,
      "##포르": 6969,
      "##일러": 6970,
      "사직": 6971,
      "산지": 6972,
      "목포": 6973,
      "음료": 6974,
      "희귀": 6975,
      "극대": 6976,
      "불신": 6977,
      "신선": 6978,
      "빼앗기": 6979,
      "거품": 6980,
      "묻히": 6981,
      "영장": 6982,
      "왕실": 6983,
      "61": 6984,
      "경사": 6985,
      "예산안": 6986,
      "사무관": 6987,
      "중장기": 6988,
      "수료": 6989,
      "700": 6990,
      "손가락": 6991,
      "착취": 6992,
      "합류": 6993,
      "합격자": 6994,
      "차세대": 6995,
      "보행자": 6996,
      "ᆫ답": 6997,
      "만성": 6998,
      "확고": 6999,
      "반갑": 7000,
      "세심": 7001,
      "협동조합": 7002,
      "다각": 7003,
      "바닷": 7004,
      "오해": 7005,
      "##하나": 7006,
      "자부심": 7007,
      "광범위": 7008,
      "근무자": 7009,
      "63": 7010,
      "견제": 7011,
      "비극": 7012,
      "그리하": 7013,
      "긴밀히": 7014,
      "미혼": 7015,
      "소홀": 7016,
      "세트": 7017,
      "시티": 7018,
      "##마드": 7019,
      "유인": 7020,
      "##먼트": 7021,
      "슬프": 7022,
      "주머니": 7023,
      "이대로": 7024,
      "지체": 7025,
      "득점": 7026,
      "예수": 7027,
      "##40": 7028,
      "보험금": 7029,
      "임대차": 7030,
      "무한": 7031,
      "버전": 7032,
      "신학": 7033,
      "응모": 7034,
      "병원비": 7035,
      "난방": 7036,
      "앞당기": 7037,
      "정시": 7038,
      "홍수": 7039,
      "##박스": 7040,
      "재판소": 7041,
      "실용": 7042,
      "윌리": 7043,
      "동북아": 7044,
      "폭넓": 7045,
      "길래": 7046,
      "외래": 7047,
      "##누리": 7048,
      "이나마": 7049,
      "베르": 7050,
      "소녀": 7051,
      "감상": 7052,
      "입양": 7053,
      "감독관": 7054,
      "으러": 7055,
      "종결": 7056,
      "지옥": 7057,
      "KBS": 7058,
      "ㅠㅠ": 7059,
      "양상": 7060,
      "##키스탄": 7061,
      "인디": 7062,
      "평택": 7063,
      "관제": 7064,
      "블루": 7065,
      "##타리": 7066,
      "당황": 7067,
      "IM": 7068,
      "전송": 7069,
      "피로": 7070,
      "소셜": 7071,
      "스프": 7072,
      "스펙": 7073,
      "합당": 7074,
      "66": 7075,
      "공영": 7076,
      "처지": 7077,
      "되찾": 7078,
      "조례": 7079,
      "언니": 7080,
      "국고": 7081,
      "교도소": 7082,
      "담합": 7083,
      "신성": 7084,
      "캘리": 7085,
      "신청자": 7086,
      "라디오": 7087,
      "농어촌": 7088,
      "근육": 7089,
      "적립": 7090,
      "책자": 7091,
      "포스트": 7092,
      "##머님": 7093,
      "공론": 7094,
      "메뉴": 7095,
      "번식": 7096,
      "중구": 7097,
      "기관장": 7098,
      "후회": 7099,
      "정복": 7100,
      "진전": 7101,
      "착각": 7102,
      "파산": 7103,
      "##무사": 7104,
      "교육비": 7105,
      "분과": 7106,
      "인테리어": 7107,
      "떠들": 7108,
      "조카": 7109,
      "산소": 7110,
      "어마": 7111,
      "1945": 7112,
      "난임": 7113,
      "지형": 7114,
      "아니하": 7115,
      "어이없": 7116,
      "사명": 7117,
      "사연": 7118,
      "매출액": 7119,
      "분해": 7120,
      "인가": 7121,
      "꺼리": 7122,
      "사냥": 7123,
      "시일": 7124,
      "참사": 7125,
      "코치": 7126,
      "아이돌": 7127,
      "프리미": 7128,
      "각지": 7129,
      "멘토링": 7130,
      "미성년자": 7131,
      "농단": 7132,
      "드림": 7133,
      "사격": 7134,
      "신상": 7135,
      "언론사": 7136,
      "상당수": 7137,
      "국어": 7138,
      "에이": 7139,
      "진주": 7140,
      "파손": 7141,
      "패션": 7142,
      "기온": 7143,
      "더더": 7144,
      "자진": 7145,
      "태권": 7146,
      "##티나": 7147,
      "김해": 7148,
      "눈높이": 7149,
      "##비전": 7150,
      "##어하": 7151,
      "160": 7152,
      "애쓰": 7153,
      "계류": 7154,
      "뒤집": 7155,
      "불행": 7156,
      "제대": 7157,
      "구청장": 7158,
      "수건": 7159,
      "바로잡": 7160,
      "금지법": 7161,
      "청주": 7162,
      "##러스터": 7163,
      "FC": 7164,
      "교장": 7165,
      "만기": 7166,
      "##유럽": 7167,
      "대표단": 7168,
      "수상작": 7169,
      "##싱턴": 7170,
      "연도": 7171,
      "##레이션": 7172,
      "자영업": 7173,
      "경매": 7174,
      "테크": 7175,
      "양보": 7176,
      "추모": 7177,
      "하자": 7178,
      "한옥": 7179,
      "확인서": 7180,
      "1991": 7181,
      "무효": 7182,
      "사생활": 7183,
      "전지": 7184,
      "해산": 7185,
      "##돼지": 7186,
      "어떠하": 7187,
      "영원히": 7188,
      "일가": 7189,
      "밝혀": 7190,
      "1500": 7191,
      "130": 7192,
      "갈수록": 7193,
      "예매": 7194,
      "개조": 7195,
      "보충": 7196,
      "통로": 7197,
      "질량": 7198,
      "1996": 7199,
      "SW": 7200,
      "감추": 7201,
      "농지": 7202,
      "시연": 7203,
      "개량": 7204,
      "결핵": 7205,
      "나폴": 7206,
      "니깐": 7207,
      "상자": 7208,
      "수혜": 7209,
      "암호화폐": 7210,
      "센서": 7211,
      "태권도": 7212,
      "출마": 7213,
      "동아리": 7214,
      "비단": 7215,
      "##총장": 7216,
      "방한": 7217,
      "아트": 7218,
      "진상": 7219,
      "치료비": 7220,
      "1992": 7221,
      "사범": 7222,
      "신임": 7223,
      "의의": 7224,
      "살아남": 7225,
      "스토리": 7226,
      "탁상": 7227,
      "##번호": 7228,
      "군산": 7229,
      "연출": 7230,
      "군주": 7231,
      "농약": 7232,
      "선동": 7233,
      "성명": 7234,
      "좌절": 7235,
      "##머스": 7236,
      "가산점": 7237,
      "더더욱": 7238,
      "기각": 7239,
      "진흥원": 7240,
      "배터리": 7241,
      "사령관": 7242,
      "소집": 7243,
      "참모": 7244,
      "해경": 7245,
      "책임감": 7246,
      "단말": 7247,
      "외식": 7248,
      "##프리카": 7249,
      "여가부": 7250,
      "개미": 7251,
      "선행": 7252,
      "청춘": 7253,
      "##어버리": 7254,
      "냉장": 7255,
      "정수": 7256,
      "랍니다": 7257,
      "습관": 7258,
      "##카드": 7259,
      "으리": 7260,
      "계획서": 7261,
      "클러스터": 7262,
      "해충": 7263,
      "감사원": 7264,
      "72": 7265,
      "정교": 7266,
      "탐색": 7267,
      "개막식": 7268,
      "대대적": 7269,
      "싫어하": 7270,
      "전철": 7271,
      "하원": 7272,
      "화석": 7273,
      "1988": 7274,
      "백성": 7275,
      "재건": 7276,
      "트랙": 7277,
      "현직": 7278,
      "##부로": 7279,
      "육상": 7280,
      "##레이드": 7281,
      "바우처": 7282,
      "은지": 7283,
      "증원": 7284,
      "필기": 7285,
      "구경": 7286,
      "무궁": 7287,
      "선교": 7288,
      "수차례": 7289,
      "영수": 7290,
      "경각": 7291,
      "유독": 7292,
      "세탁기": 7293,
      "귀하": 7294,
      "남동": 7295,
      "바위": 7296,
      "##리티": 7297,
      "##소연": 7298,
      "##회장": 7299,
      "##거지": 7300,
      "공백": 7301,
      "예보": 7302,
      "##철도": 7303,
      "급격히": 7304,
      "날개": 7305,
      "박수": 7306,
      "장수": 7307,
      "##아먹": 7308,
      "스타일": 7309,
      "학자금": 7310,
      "마냥": 7311,
      "공용": 7312,
      "발매": 7313,
      "자원봉": 7314,
      "UN": 7315,
      "항성": 7316,
      "##보도": 7317,
      "크로": 7318,
      "후배": 7319,
      "##요원": 7320,
      "전과": 7321,
      "주류": 7322,
      "혈압": 7323,
      "##드로": 7324,
      "##라이나": 7325,
      "각서": 7326,
      "택지": 7327,
      "##70": 7328,
      "##바닥": 7329,
      "중소기업청": 7330,
      "질환자": 7331,
      "말레이": 7332,
      "양쪽": 7333,
      "횡령": 7334,
      "애플": 7335,
      "##환자": 7336,
      "##너스": 7337,
      "혼잡": 7338,
      "팔리": 7339,
      "각계": 7340,
      "빠져": 7341,
      "서버": 7342,
      "용이": 7343,
      "저해": 7344,
      "터키": 7345,
      "##체어": 7346,
      "수위": 7347,
      "비추": 7348,
      "경각심": 7349,
      "열악하": 7350,
      "계통": 7351,
      "꺼내": 7352,
      "파크": 7353,
      "윌리엄": 7354,
      "장벽": 7355,
      "개장": 7356,
      "변형": 7357,
      "800": 7358,
      "마일": 7359,
      "##른바": 7360,
      "무게": 7361,
      "물러나": 7362,
      "업주": 7363,
      "영농": 7364,
      "익히": 7365,
      "합성": 7366,
      "호봉": 7367,
      "빌라": 7368,
      "식별": 7369,
      "운반": 7370,
      "##허가": 7371,
      "군부": 7372,
      "방산": 7373,
      "방관": 7374,
      "사내": 7375,
      "사관": 7376,
      "임직원": 7377,
      "조그": 7378,
      "중도": 7379,
      "##라비아": 7380,
      "##두리": 7381,
      "가리키": 7382,
      "심도": 7383,
      "운명": 7384,
      "단체장": 7385,
      "이해관계": 7386,
      "김경": 7387,
      "무슬": 7388,
      "승차": 7389,
      "사면": 7390,
      "욕구": 7391,
      "눈길": 7392,
      "추측": 7393,
      "한쪽": 7394,
      "마음대로": 7395,
      "뮤지": 7396,
      "들여": 7397,
      "마구": 7398,
      "소각": 7399,
      "읍면": 7400,
      "##고속": 7401,
      "지붕": 7402,
      "부유": 7403,
      "앨범": 7404,
      "85": 7405,
      "워싱턴": 7406,
      "원조": 7407,
      "재미있": 7408,
      "계정": 7409,
      "난리": 7410,
      "갈색": 7411,
      "만주": 7412,
      "부재": 7413,
      "친하": 7414,
      "탐지": 7415,
      "대한항공": 7416,
      "거주지": 7417,
      "돌아보": 7418,
      "스코": 7419,
      "이관": 7420,
      "클라우드": 7421,
      "화해": 7422,
      "웃기": 7423,
      "##아나": 7424,
      "##다나": 7425,
      "##재난": 7426,
      "이른바": 7427,
      "학점": 7428,
      "정세균": 7429,
      "강좌": 7430,
      "항해": 7431,
      "시가": 7432,
      "신장": 7433,
      "원가": 7434,
      "위대": 7435,
      "중재": 7436,
      "으려면": 7437,
      "조용히": 7438,
      "글자": 7439,
      "리스": 7440,
      "빌딩": 7441,
      "##공업": 7442,
      "##방위": 7443,
      "구인": 7444,
      "##건설": 7445,
      "##팡이": 7446,
      "심층": 7447,
      "일련": 7448,
      "관련자": 7449,
      "통일부": 7450,
      "고전": 7451,
      "교정": 7452,
      "함부로": 7453,
      "허나": 7454,
      "##려받": 7455,
      "채무자": 7456,
      "학살": 7457,
      "후쿠": 7458,
      "따라가": 7459,
      "##재난안전": 7460,
      "실상": 7461,
      "정성": 7462,
      "김종": 7463,
      "밀어": 7464,
      "감히": 7465,
      "휠체어": 7466,
      "근로복지": 7467,
      "##60": 7468,
      "상급": 7469,
      "원수": 7470,
      "차등": 7471,
      "피고": 7472,
      "전라남도": 7473,
      "발병": 7474,
      "우습": 7475,
      "입자": 7476,
      "어야죠": 7477,
      "관리비": 7478,
      "무슬림": 7479,
      "초중": 7480,
      "해임": 7481,
      "##러리": 7482,
      "ᆫ다니": 7483,
      "고위급": 7484,
      "싱가포르": 7485,
      "그날": 7486,
      "성경": 7487,
      "절망": 7488,
      "핀테크": 7489,
      "##의사": 7490,
      "매개": 7491,
      "여서": 7492,
      "중환자": 7493,
      "##그룹": 7494,
      "유죄": 7495,
      "알파": 7496,
      "열람": 7497,
      "패러": 7498,
      "플랜": 7499,
      "호남": 7500,
      "혁신처": 7501,
      "음식물": 7502,
      "선조": 7503,
      "의자": 7504,
      "##라노": 7505,
      "##모리": 7506,
      "기술자": 7507,
      "통신부": 7508,
      "1994": 7509,
      "신생": 7510,
      "천국": 7511,
      "##보건": 7512,
      "등산": 7513,
      "용량": 7514,
      "##나이": 7515,
      "식용": 7516,
      "푸르": 7517,
      "호선": 7518,
      "혼합": 7519,
      "국악": 7520,
      "아랍": 7521,
      "통학": 7522,
      "근로복지공단": 7523,
      "도우": 7524,
      "인쇄": 7525,
      "서비스업": 7526,
      "루이": 7527,
      "응용": 7528,
      "막막": 7529,
      "티켓": 7530,
      "해변": 7531,
      "감리": 7532,
      "종로": 7533,
      "##벨트": 7534,
      "안보리": 7535,
      "간단하": 7536,
      "횡단보도": 7537,
      "밀착": 7538,
      "국제선": 7539,
      "우회": 7540,
      "일터": 7541,
      "##버트": 7542,
      "상황실": 7543,
      "의료인": 7544,
      "안기": 7545,
      "찾아내": 7546,
      "욕심": 7547,
      "타협": 7548,
      "편히": 7549,
      "경비원": 7550,
      "공소": 7551,
      "지지자": 7552,
      "에어비": 7553,
      "맞이하": 7554,
      "체류자": 7555,
      "디스": 7556,
      "간섭": 7557,
      "따위": 7558,
      "보이스피": 7559,
      "막상": 7560,
      "상습": 7561,
      "에다": 7562,
      "유로": 7563,
      "일수": 7564,
      "곧바로": 7565,
      "과다": 7566,
      "대만": 7567,
      "적히": 7568,
      "편견": 7569,
      "더욱이": 7570,
      "크루즈": 7571,
      "국비": 7572,
      "사퇴": 7573,
      "야영": 7574,
      "캠핑": 7575,
      "보이스피싱": 7576,
      "진지": 7577,
      "포상금": 7578,
      "알렉산": 7579,
      "공채": 7580,
      "떨어": 7581,
      "야근": 7582,
      "의대": 7583,
      "충분하": 7584,
      "캘리포": 7585,
      "모래": 7586,
      "무늬": 7587,
      "포위": 7588,
      "고립": 7589,
      "과열": 7590,
      "문명": 7591,
      "발상": 7592,
      "수명": 7593,
      "##80": 7594,
      "110": 7595,
      "사무총장": 7596,
      "십자": 7597,
      "짜증": 7598,
      "플러스": 7599,
      "##무청": 7600,
      "한국토": 7601,
      "다스리": 7602,
      "기리": 7603,
      "상륙": 7604,
      "강원랜드": 7605,
      "99": 7606,
      "악기": 7607,
      "인삼": 7608,
      "MO": 7609,
      "꾸리": 7610,
      "인허가": 7611,
      "천억": 7612,
      "사령부": 7613,
      "기저": 7614,
      "석방": 7615,
      "부근": 7616,
      "부친": 7617,
      "##키아": 7618,
      "규격": 7619,
      "기동": 7620,
      "직권": 7621,
      "진료비": 7622,
      "으리라": 7623,
      "충당": 7624,
      "티비": 7625,
      "프라": 7626,
      "일본인": 7627,
      "진료소": 7628,
      "갑작스럽": 7629,
      "김대중": 7630,
      "가담": 7631,
      "마비": 7632,
      "점유": 7633,
      "##사업": 7634,
      "##대책": 7635,
      "신부": 7636,
      "##리히": 7637,
      "##어마": 7638,
      "67": 7639,
      "남양": 7640,
      "파급": 7641,
      "결심": 7642,
      "##수도": 7643,
      "하나하나": 7644,
      "감형": 7645,
      "견해": 7646,
      "기둥": 7647,
      "버섯": 7648,
      "중산": 7649,
      "영수증": 7650,
      "##지역": 7651,
      "##플레이": 7652,
      "방문객": 7653,
      "74": 7654,
      "면세": 7655,
      "사드": 7656,
      "샌드": 7657,
      "선전": 7658,
      "카르": 7659,
      "한창": 7660,
      "대리인": 7661,
      "면밀히": 7662,
      "다그": 7663,
      "비디오": 7664,
      "왕위": 7665,
      "익명": 7666,
      "인종": 7667,
      "##내리": 7668,
      "##조리": 7669,
      "가점": 7670,
      "상사": 7671,
      "수지": 7672,
      "##수원": 7673,
      "##재료": 7674,
      "더불어민주당": 7675,
      "마리아": 7676,
      "함대": 7677,
      "1993": 7678,
      "방사능": 7679,
      "새해": 7680,
      "의제": 7681,
      "일요일": 7682,
      "##연합": 7683,
      "##세포": 7684,
      "ᆯ려면": 7685,
      "DM": 7686,
      "고개": 7687,
      "휴전": 7688,
      "흔하": 7689,
      "수련": 7690,
      "##파크": 7691,
      "배당": 7692,
      "유흥": 7693,
      "하소연": 7694,
      "베이징": 7695,
      "남해": 7696,
      "소감": 7697,
      "케어": 7698,
      "탄압": 7699,
      "##지니어": 7700,
      "세계인": 7701,
      "예술가": 7702,
      "경상남도": 7703,
      "운수": 7704,
      "웃음": 7705,
      "때로": 7706,
      "만만": 7707,
      "변제": 7708,
      "욕하": 7709,
      "마이크로": 7710,
      "성평등": 7711,
      "원망": 7712,
      "저자": 7713,
      "하드": 7714,
      "궁궐": 7715,
      "봉투": 7716,
      "치밀": 7717,
      "튼튼": 7718,
      "포스터": 7719,
      "황교": 7720,
      "##해양": 7721,
      "서울특별": 7722,
      "구제역": 7723,
      "느리": 7724,
      "찌르": 7725,
      "##를린": 7726,
      "국정원": 7727,
      "성범죄자": 7728,
      "단말기": 7729,
      "캘리포니아": 7730,
      "감싸": 7731,
      "보살": 7732,
      "##보드": 7733,
      "반기": 7734,
      "조폭": 7735,
      "치루": 7736,
      "토크": 7737,
      "포도": 7738,
      "자존": 7739,
      "천사": 7740,
      "학계": 7741,
      "##리스트": 7742,
      "##기계": 7743,
      "##관광": 7744,
      "179": 7745,
      "여객선": 7746,
      "페미니스트": 7747,
      "페이": 7748,
      "##트롤": 7749,
      "##풀이": 7750,
      "중앙재난안전": 7751,
      "보좌관": 7752,
      "##대책본부": 7753,
      "중앙재난안전대책본부": 7754,
      "과잉": 7755,
      "군단": 7756,
      "제사": 7757,
      "특검": 7758,
      "FIFA": 7759,
      "쏟아지": 7760,
      "9000": 7761,
      "대충": 7762,
      "전날": 7763,
      "중세": 7764,
      "으라는": 7765,
      "증빙": 7766,
      "화력": 7767,
      "과학자": 7768,
      "반려견": 7769,
      "##주택공사": 7770,
      "마사": 7771,
      "실체": 7772,
      "제임스": 7773,
      "황금": 7774,
      "상담사": 7775,
      "##국제공항": 7776,
      "##머리": 7777,
      "더군다나": 7778,
      "극히": 7779,
      "수중": 7780,
      "오빠": 7781,
      "고용부": 7782,
      "그야": 7783,
      "##따르": 7784,
      "상품권": 7785,
      "한국토지": 7786,
      "국도": 7787,
      "산출": 7788,
      "##주인": 7789,
      "##무니": 7790,
      "##관리본부": 7791,
      "황교안": 7792,
      "다는데": 7793,
      "184": 7794,
      "IMF": 7795,
      "그야말로": 7796,
      "열매": 7797,
      "##퍼런스": 7798,
      "##복무": 7799,
      "어마어마": 7800,
      "마켓": 7801,
      "증액": 7802,
      "입주민": 7803,
      "삼성전자": 7804,
      "##보기": 7805,
      "##파르": 7806,
      "질병관리본부": 7807,
      "EU": 7808,
      "검거": 7809,
      "누락": 7810,
      "증인": 7811,
      "함유": 7812,
      "사업체": 7813,
      "가방": 7814,
      "물고기": 7815,
      "찍히": 7816,
      "친척": 7817,
      "탐사": 7818,
      "##대원": 7819,
      "##느러미": 7820,
      "드라이": 7821,
      "차로": 7822,
      "갈취": 7823,
      "바지": 7824,
      "시나": 7825,
      "연평": 7826,
      "##토리": 7827,
      "AP": 7828,
      "각오": 7829,
      "금방": 7830,
      "이정": 7831,
      "흘러": 7832,
      "구미": 7833,
      "말기": 7834,
      "신원": 7835,
      "지느러미": 7836,
      "직결": 7837,
      "출제": 7838,
      "인증서": 7839,
      "소년법": 7840,
      "내국": 7841,
      "도래": 7842,
      "사욕": 7843,
      "선착": 7844,
      "에드": 7845,
      "소아": 7846,
      "원스": 7847,
      "##10": 7848,
      "납세": 7849,
      "어플": 7850,
      "퇴출": 7851,
      "프란": 7852,
      "##수지": 7853,
      "국립중앙": 7854,
      "국기": 7855,
      "사소": 7856,
      "상임": 7857,
      "아미": 7858,
      "약정": 7859,
      "여력": 7860,
      "거실": 7861,
      "주둔": 7862,
      "한때": 7863,
      "말레이시아": 7864,
      "공관": 7865,
      "소나무": 7866,
      "서울특별시": 7867,
      "양립": 7868,
      "업적": 7869,
      "캐리어": 7870,
      "##투스": 7871,
      "73": 7872,
      "김용": 7873,
      "오피스": 7874,
      "##천군": 7875,
      "우연히": 7876,
      "2025": 7877,
      "나치": 7878,
      "서서": 7879,
      "시계": 7880,
      "짓밟": 7881,
      "학사": 7882,
      "##앤비": 7883,
      "꼬박": 7884,
      "방재": 7885,
      "변명": 7886,
      "친정": 7887,
      "효소": 7888,
      "##메일": 7889,
      "양성평등": 7890,
      "뉴질": 7891,
      "진작": 7892,
      "프랜": 7893,
      "출입국": 7894,
      "시청자": 7895,
      "잠재력": 7896,
      "반박": 7897,
      "신화": 7898,
      "터무니": 7899,
      "건물주": 7900,
      "보유세": 7901,
      "만연": 7902,
      "소매": 7903,
      "송금": 7904,
      "수량": 7905,
      "중남": 7906,
      "코너": 7907,
      "##제국": 7908,
      "뉴질랜드": 7909,
      "소모": 7910,
      "창립": 7911,
      "##젠가": 7912,
      "시험장": 7913,
      "리스크": 7914,
      "언젠가": 7915,
      "공표": 7916,
      "노트": 7917,
      "대입": 7918,
      "무선": 7919,
      "염려": 7920,
      "한국전": 7921,
      "식구": 7922,
      "##문화재연구소": 7923,
      "계란": 7924,
      "부추": 7925,
      "저지": 7926,
      "서서히": 7927,
      "바래": 7928,
      "베이스": 7929,
      "소환": 7930,
      "##출산": 7931,
      "음주운전": 7932,
      "복권": 7933,
      "수분": 7934,
      "정황": 7935,
      "대체로": 7936,
      "NC": 7937,
      "공존": 7938,
      "민중": 7939,
      "이직": 7940,
      "임진": 7941,
      "##시설": 7942,
      "185": 7943,
      "불구하": 7944,
      "로비": 7945,
      "부도": 7946,
      "초월": 7947,
      "침수": 7948,
      "침몰": 7949,
      "한국토지주택공사": 7950,
      "영주": 7951,
      "워킹": 7952,
      "##조사": 7953,
      "미비": 7954,
      "어우": 7955,
      "##쿠스": 7956,
      "이사회": 7957,
      "이메일": 7958,
      "내주": 7959,
      "우체": 7960,
      "##군요": 7961,
      "##부패": 7962,
      "추진단": 7963,
      "결과물": 7964,
      "전라북도": 7965,
      "내보내": 7966,
      "방영": 7967,
      "해킹": 7968,
      "원스톱": 7969,
      "지분": 7970,
      "##수산": 7971,
      "지원자": 7972,
      "오스트레일": 7973,
      "오스트레일리아": 7974,
      "88": 7975,
      "내지": 7976,
      "원시": 7977,
      "지원단": 7978,
      "귀가": 7979,
      "녹취": 7980,
      "##테르": 7981,
      "정전": 7982,
      "헨리": 7983,
      "##루션": 7984,
      "조달청": 7985,
      "바퀴": 7986,
      "탈북": 7987,
      "인문학": 7988,
      "드물": 7989,
      "밀도": 7990,
      "유하": 7991,
      "피아노": 7992,
      "도우미": 7993,
      "즐거": 7994,
      "##회식": 7995,
      "포르투갈": 7996,
      "용지": 7997,
      "조롱": 7998,
      "감기": 7999,
      "민국": 8000,
      "안동": 8001,
      "##걸음": 8002,
      "기업가": 8003,
      "무덤": 8004,
      "##차이즈": 8005,
      "##무지": 8006,
      "##망이": 8007,
      "병무청": 8008,
      "해마다": 8009,
      "주유": 8010,
      "히로": 8011,
      "140": 8012,
      "거듭나": 8013,
      "기만": 8014,
      "붙잡": 8015,
      "소극": 8016,
      "승무원": 8017,
      "신랑": 8018,
      "엔지니어": 8019,
      "으세요": 8020,
      "필터": 8021,
      "대표자": 8022,
      "세르": 8023,
      "기본법": 8024,
      "수도원": 8025,
      "당사": 8026,
      "반납": 8027,
      "제제": 8028,
      "산단": 8029,
      "승격": 8030,
      "암살": 8031,
      "유가": 8032,
      "재고": 8033,
      "적성": 8034,
      "자신감": 8035,
      "1920": 8036,
      "약화": 8037,
      "파탄": 8038,
      "교육감": 8039,
      "학생부": 8040,
      "어쩌면": 8041,
      "마침내": 8042,
      "상기": 8043,
      "양극": 8044,
      "항소": 8045,
      "힘겹": 8046,
      "##디션": 8047,
      "##풍기": 8048,
      "부정부패": 8049,
      "대단히": 8050,
      "중남미": 8051,
      "매칭": 8052,
      "몰카": 8053,
      "습지": 8054,
      "포획": 8055,
      "승용차": 8056,
      "소원": 8057,
      "단호": 8058,
      "블로그": 8059,
      "##레이터": 8060,
      "건설업": 8061,
      "공연장": 8062,
      "고종": 8063,
      "명성": 8064,
      "진도": 8065,
      "회신": 8066,
      "납입": 8067,
      "삭감": 8068,
      "일부러": 8069,
      "주정": 8070,
      "최순": 8071,
      "표정": 8072,
      "현충": 8073,
      "방송국": 8074,
      "단일팀": 8075,
      "골든": 8076,
      "더구나": 8077,
      "상점": 8078,
      "시사": 8079,
      "유무": 8080,
      "청나라": 8081,
      "추출": 8082,
      "당뇨": 8083,
      "대두": 8084,
      "덴마크": 8085,
      "메일": 8086,
      "배분": 8087,
      "원금": 8088,
      "은가": 8089,
      "특색": 8090,
      "베를린": 8091,
      "벨트": 8092,
      "재현": 8093,
      "지문": 8094,
      "계도": 8095,
      "이식": 8096,
      "일상생활": 8097,
      "성실히": 8098,
      "경연": 8099,
      "도장": 8100,
      "아스": 8101,
      "특강": 8102,
      "##체육": 8103,
      "정보원": 8104,
      "소망": 8105,
      "공청": 8106,
      "솔루션": 8107,
      "시효": 8108,
      "압수": 8109,
      "유료": 8110,
      "재택": 8111,
      "주입": 8112,
      "자라나": 8113,
      "프로세스": 8114,
      "비우": 8115,
      "색깔": 8116,
      "어머님": 8117,
      "지이": 8118,
      "##하키": 8119,
      "아무렇": 8120,
      "경성": 8121,
      "동아시아": 8122,
      "비호": 8123,
      "패턴": 8124,
      "풍력": 8125,
      "체험관": 8126,
      "연합회": 8127,
      "IC": 8128,
      "박영": 8129,
      "생일": 8130,
      "후진": 8131,
      "타이틀": 8132,
      "어우러지": 8133,
      "봉사자": 8134,
      "은하": 8135,
      "이서": 8136,
      "사회복무": 8137,
      "교섭": 8138,
      "깨지": 8139,
      "신기": 8140,
      "고분": 8141,
      "소급": 8142,
      "##기에": 8143,
      "와이프": 8144,
      "넉넉": 8145,
      "성질": 8146,
      "잃어버리": 8147,
      "편법": 8148,
      "##상하": 8149,
      "운동가": 8150,
      "프리미엄": 8151,
      "SOC": 8152,
      "단단": 8153,
      "연내": 8154,
      "합산": 8155,
      "서식지": 8156,
      "타당성": 8157,
      "총독": 8158,
      "##저리": 8159,
      "생산량": 8160,
      "1930": 8161,
      "돌려주": 8162,
      "동양": 8163,
      "##동강": 8164,
      "공청회": 8165,
      "사회복무요원": 8166,
      "성취": 8167,
      "옥상": 8168,
      "장시간": 8169,
      "기상청": 8170,
      "내몰": 8171,
      "이윤": 8172,
      "퍼센트": 8173,
      "공해": 8174,
      "대수": 8175,
      "물체": 8176,
      "번호판": 8177,
      "일일이": 8178,
      "보병": 8179,
      "북극": 8180,
      "사인": 8181,
      "##스키": 8182,
      "증가세": 8183,
      "MOU": 8184,
      "69": 8185,
      "구원": 8186,
      "의거": 8187,
      "##페이": 8188,
      "경위": 8189,
      "상여금": 8190,
      "언덕": 8191,
      "우호": 8192,
      "금융위": 8193,
      "손자": 8194,
      "신발": 8195,
      "원서": 8196,
      "좌파": 8197,
      "휴지": 8198,
      "더욱더": 8199,
      "떨어뜨리": 8200,
      "서점": 8201,
      "##소년단": 8202,
      "시신": 8203,
      "악취": 8204,
      "호국": 8205,
      "방송사": 8206,
      "시급하": 8207,
      "모스크": 8208,
      "미얀": 8209,
      "전신": 8210,
      "후유": 8211,
      "##시오": 8212,
      "미생물": 8213,
      "이빨": 8214,
      "적시": 8215,
      "정립": 8216,
      "파면": 8217,
      "지휘관": 8218,
      "산학연": 8219,
      "71": 8220,
      "79": 8221,
      "관중": 8222,
      "리스트": 8223,
      "볼거리": 8224,
      "원소": 8225,
      "##타인": 8226,
      "격상": 8227,
      "전술": 8228,
      "판례": 8229,
      "게스트": 8230,
      "구석": 8231,
      "알아": 8232,
      "응하": 8233,
      "중시": 8234,
      "카드사": 8235,
      "82": 8236,
      "매진": 8237,
      "멸망": 8238,
      "발목": 8239,
      "부수": 8240,
      "산악": 8241,
      "체인": 8242,
      "회견": 8243,
      "으려는": 8244,
      "##행위": 8245,
      "모기": 8246,
      "보태": 8247,
      "알선": 8248,
      "자생": 8249,
      "적법": 8250,
      "죄인": 8251,
      "농축": 8252,
      "함량": 8253,
      "항복": 8254,
      "케이블": 8255,
      "관세청": 8256,
      "미얀마": 8257,
      "공립": 8258,
      "망가지": 8259,
      "맥주": 8260,
      "##아웃": 8261,
      "최순실": 8262,
      "부천": 8263,
      "탈퇴": 8264,
      "트라우": 8265,
      "##틀랜드": 8266,
      "에어비앤비": 8267,
      "귀농": 8268,
      "문장": 8269,
      "결혼식": 8270,
      "민심": 8271,
      "벌레": 8272,
      "1989": 8273,
      "나르": 8274,
      "내신": 8275,
      "산란": 8276,
      "자활": 8277,
      "##데이": 8278,
      "행사장": 8279,
      "아르헨": 8280,
      "대개": 8281,
      "살림": 8282,
      "원형": 8283,
      "##사무소": 8284,
      "읍면동": 8285,
      "강소": 8286,
      "겹치": 8287,
      "적대": 8288,
      "76": 8289,
      "다름": 8290,
      "##페이스": 8291,
      "전차": 8292,
      "집주인": 8293,
      "억압": 8294,
      "연락처": 8295,
      "##보험공단": 8296,
      "살균": 8297,
      "안락": 8298,
      "여파": 8299,
      "##여행": 8300,
      "게재": 8301,
      "관서": 8302,
      "묵인": 8303,
      "타자": 8304,
      "해치": 8305,
      "임대인": 8306,
      "희생자": 8307,
      "염원": 8308,
      "운운": 8309,
      "이바지": 8310,
      "##코드": 8311,
      "##국장": 8312,
      "일용직": 8313,
      "77": 8314,
      "성수": 8315,
      "유역": 8316,
      "척결": 8317,
      "헌혈": 8318,
      "##다임": 8319,
      "복지사": 8320,
      "아이스하키": 8321,
      "걸어가": 8322,
      "불쾌": 8323,
      "안일": 8324,
      "욕실": 8325,
      "천지": 8326,
      "충청남도": 8327,
      "AS": 8328,
      "반입": 8329,
      "서기": 8330,
      "천장": 8331,
      "회관": 8332,
      "광주광역시": 8333,
      "부추기": 8334,
      "부드": 8335,
      "신념": 8336,
      "유착": 8337,
      "척추": 8338,
      "형벌": 8339,
      "회의실": 8340,
      "방사선": 8341,
      "625": 8342,
      "충실히": 8343,
      "아리랑": 8344,
      "산맥": 8345,
      "월요일": 8346,
      "장만": 8347,
      "##도르": 8348,
      "정차": 8349,
      "아르헨티나": 8350,
      "꼽히": 8351,
      "방화": 8352,
      "스미": 8353,
      "증강": 8354,
      "통역": 8355,
      "천안함": 8356,
      "내국인": 8357,
      "대왕": 8358,
      "든든": 8359,
      "직렬": 8360,
      "출현": 8361,
      "##셔널": 8362,
      "주택자": 8363,
      "DMZ": 8364,
      "캄보": 8365,
      "인천국제공항": 8366,
      "방탄소년단": 8367,
      "패러다임": 8368,
      "트라우마": 8369,
      "부드럽": 8370,
      "교재": 8371,
      "독거": 8372,
      "브로": 8373,
      "우유": 8374,
      "국제기구": 8375,
      "미래부": 8376,
      "이산가족": 8377,
      "이승만": 8378,
      "두루": 8379,
      "빈부": 8380,
      "택하": 8381,
      "##치아": 8382,
      "그러니까": 8383,
      "ᆯ지라도": 8384,
      "91": 8385,
      "갈라지": 8386,
      "인용": 8387,
      "##이너": 8388,
      "##막이": 8389,
      "결승전": 8390,
      "캄보디아": 8391,
      "개도": 8392,
      "법칙": 8393,
      "책상": 8394,
      "플로": 8395,
      "힘없": 8396,
      "##정보원": 8397,
      "꼼꼼히": 8398,
      "교직원": 8399,
      "더위": 8400,
      "동구": 8401,
      "78": 8402,
      "개사": 8403,
      "서두르": 8404,
      "기대감": 8405,
      "1987": 8406,
      "몰아": 8407,
      "북측": 8408,
      "수법": 8409,
      "조현": 8410,
      "포로": 8411,
      "##세지": 8412,
      "상관없": 8413,
      "테이블": 8414,
      "그릇": 8415,
      "일당": 8416,
      "피난": 8417,
      "##그라": 8418,
      "##빨리": 8419,
      "금품": 8420,
      "춘천": 8421,
      "동서": 8422,
      "입점": 8423,
      "전승": 8424,
      "##단체": 8425,
      "##느리": 8426,
      "무궁화": 8427,
      "나날": 8428,
      "사설": 8429,
      "클릭": 8430,
      "내려지": 8431,
      "WW": 8432,
      "불어": 8433,
      "진영": 8434,
      "170": 8435,
      "부산시": 8436,
      "무더": 8437,
      "버젓": 8438,
      "연일": 8439,
      "전가": 8440,
      "전두": 8441,
      "개도국": 8442,
      "공화": 8443,
      "놀이터": 8444,
      "박쥐": 8445,
      "궁극": 8446,
      "늦추": 8447,
      "매기": 8448,
      "염색": 8449,
      "장거리": 8450,
      "기적": 8451,
      "수감": 8452,
      "여중": 8453,
      "추위": 8454,
      "통계청": 8455,
      "무고죄": 8456,
      "강서": 8457,
      "남방": 8458,
      "악순환": 8459,
      "열기": 8460,
      "정직": 8461,
      "냉장고": 8462,
      "원고": 8463,
      "정신병": 8464,
      "규범": 8465,
      "김동": 8466,
      "다주택자": 8467,
      "배추": 8468,
      "상의": 8469,
      "싱글": 8470,
      "열병": 8471,
      "동반자": 8472,
      "텔레비전": 8473,
      "부각": 8474,
      "산화": 8475,
      "우월": 8476,
      "이낙": 8477,
      "이낙연": 8478,
      "게이": 8479,
      "##금융": 8480,
      "수년": 8481,
      "외곽": 8482,
      "전락": 8483,
      "영양사": 8484,
      "가이": 8485,
      "시책": 8486,
      "학급": 8487,
      "##자치": 8488,
      "범행": 8489,
      "부히": 8490,
      "작정": 8491,
      "충원": 8492,
      "##방송": 8493,
      "깨끗하": 8494,
      "주정차": 8495,
      "83": 8496,
      "강행": 8497,
      "근간": 8498,
      "명명": 8499,
      "전동": 8500,
      "정선": 8501,
      "크레인": 8502,
      "##고용": 8503,
      "##바이러스": 8504,
      "84": 8505,
      "개학": 8506,
      "고인": 8507,
      "부치": 8508,
      "영광": 8509,
      "우크": 8510,
      "##태원": 8511,
      "##저씨": 8512,
      "기록물": 8513,
      "개년": 8514,
      "관념": 8515,
      "명부": 8516,
      "##려워하": 8517,
      "##고속도로": 8518,
      "발발": 8519,
      "##타르": 8520,
      "##매김": 8521,
      "자리매김": 8522,
      "평범하": 8523,
      "복사": 8524,
      "전념": 8525,
      "파티": 8526,
      "메이저": 8527,
      "묵묵": 8528,
      "발판": 8529,
      "솜방": 8530,
      "액체": 8531,
      "예멘": 8532,
      "일식": 8533,
      "저출산": 8534,
      "간파": 8535,
      "아저씨": 8536,
      "한인": 8537,
      "기업은행": 8538,
      "거론": 8539,
      "백작": 8540,
      "영문": 8541,
      "천주교": 8542,
      "그분": 8543,
      "##태우": 8544,
      "노사정": 8545,
      "비위": 8546,
      "##스카": 8547,
      "학년도": 8548,
      "솜방망이": 8549,
      "넘어지": 8550,
      "드디어": 8551,
      "라운드": 8552,
      "순회": 8553,
      "파출": 8554,
      "##구리": 8555,
      "생산자": 8556,
      "과학부": 8557,
      "개원": 8558,
      "광산": 8559,
      "단원": 8560,
      "로또": 8561,
      "엄벌": 8562,
      "##소통": 8563,
      "##스르": 8564,
      "주식회사": 8565,
      "청문": 8566,
      "크리": 8567,
      "요양원": 8568,
      "우체국": 8569,
      "감성": 8570,
      "후퇴": 8571,
      "##전소": 8572,
      "안내문": 8573,
      "내년도": 8574,
      "청정기": 8575,
      "고조": 8576,
      "열대": 8577,
      "흑인": 8578,
      "##노동": 8579,
      "한국환경": 8580,
      "의사소통": 8581,
      "검찰청": 8582,
      "배신": 8583,
      "안산": 8584,
      "와인": 8585,
      "워낙": 8586,
      "출하": 8587,
      "지역구": 8588,
      "우크라이나": 8589,
      "IP": 8590,
      "살짝": 8591,
      "질기": 8592,
      "출력": 8593,
      "폭언": 8594,
      "##타민": 8595,
      "##CC": 8596,
      "##랑이": 8597,
      "주택가": 8598,
      "거주자": 8599,
      "ᆫ답니다": 8600,
      "섞이": 8601,
      "##번에": 8602,
      "여행객": 8603,
      "들키": 8604,
      "알림": 8605,
      "형상": 8606,
      "98": 8607,
      "고성": 8608,
      "북방": 8609,
      "중년": 8610,
      "##호인": 8611,
      "뉴스테이": 8612,
      "비웃": 8613,
      "김상": 8614,
      "낙동강": 8615,
      "부득": 8616,
      "승계": 8617,
      "신세": 8618,
      "##에르": 8619,
      "갯벌": 8620,
      "##이도": 8621,
      "어항": 8622,
      "##려나": 8623,
      "도망가": 8624,
      "도매": 8625,
      "분실": 8626,
      "사로": 8627,
      "##넘기": 8628,
      "남북한": 8629,
      "소중하": 8630,
      "그리스도": 8631,
      "깜짝": 8632,
      "노숙": 8633,
      "묶이": 8634,
      "암컷": 8635,
      "노동조합": 8636,
      "##우리": 8637,
      "##중학교": 8638,
      "##덩이": 8639,
      "가전": 8640,
      "교구": 8641,
      "삼국": 8642,
      "세균": 8643,
      "얼음": 8644,
      "컨트롤": 8645,
      "통관": 8646,
      "한눈": 8647,
      "##리케이션": 8648,
      "##야마": 8649,
      "껍질": 8650,
      "레드": 8651,
      "미달": 8652,
      "부속": 8653,
      "아메리카": 8654,
      "연루": 8655,
      "재기": 8656,
      "##데타": 8657,
      "##초등학교": 8658,
      "궁중": 8659,
      "마루": 8660,
      "층간": 8661,
      "완전범죄": 8662,
      "농구": 8663,
      "연합군": 8664,
      "삼각": 8665,
      "수반": 8666,
      "압도": 8667,
      "중추": 8668,
      "##네스": 8669,
      "고액": 8670,
      "근원": 8671,
      "까다": 8672,
      "도민": 8673,
      "예금": 8674,
      "제의": 8675,
      "조율": 8676,
      "출토": 8677,
      "휴업": 8678,
      "후유증": 8679,
      "동화": 8680,
      "동결": 8681,
      "오사": 8682,
      "처형": 8683,
      "천황": 8684,
      "한국사": 8685,
      "억지로": 8686,
      "기침": 8687,
      "매니": 8688,
      "지청": 8689,
      "폭락": 8690,
      "##살이": 8691,
      "제작사": 8692,
      "즐거움": 8693,
      "95": 8694,
      "뭉치": 8695,
      "브레이": 8696,
      "빙상": 8697,
      "차종": 8698,
      "칭찬": 8699,
      "사업청": 8700,
      "간식": 8701,
      "공수": 8702,
      "대거": 8703,
      "미소": 8704,
      "민속": 8705,
      "##스레": 8706,
      "스코틀랜드": 8707,
      "떠올리": 8708,
      "##소음": 8709,
      "##라고": 8710,
      "물자": 8711,
      "상이": 8712,
      "이닝": 8713,
      "파주": 8714,
      "##하이": 8715,
      "도망치": 8716,
      "층간소음": 8717,
      "강경": 8718,
      "별다르": 8719,
      "순천": 8720,
      "실물": 8721,
      "안쪽": 8722,
      "윈도": 8723,
      "한자": 8724,
      "##공서": 8725,
      "의무자": 8726,
      "여행사": 8727,
      "강대": 8728,
      "보람": 8729,
      "총수": 8730,
      "항로": 8731,
      "87": 8732,
      "공적": 8733,
      "부임": 8734,
      "설사": 8735,
      "아테": 8736,
      "##렌체": 8737,
      "인천광역시": 8738,
      "강소기업": 8739,
      "까다롭": 8740,
      "누나": 8741,
      "일행": 8742,
      "천천": 8743,
      "상조": 8744,
      "신자": 8745,
      "육체": 8746,
      "치아": 8747,
      "##타임": 8748,
      "183": 8749,
      "끊기": 8750,
      "외환": 8751,
      "유류": 8752,
      "절벽": 8753,
      "입국자": 8754,
      "천천히": 8755,
      "81": 8756,
      "그랜드": 8757,
      "별개": 8758,
      "토의": 8759,
      "휴무": 8760,
      "워크넷": 8761,
      "프랜차이즈": 8762,
      "결재": 8763,
      "번째": 8764,
      "##브리": 8765,
      "상하이": 8766,
      "똑똑": 8767,
      "매립": 8768,
      "명품": 8769,
      "순방": 8770,
      "양호": 8771,
      "밝혀지": 8772,
      "관대": 8773,
      "랜드": 8774,
      "사절": 8775,
      "울타리": 8776,
      "##기념": 8777,
      "디자이너": 8778,
      "시나리오": 8779,
      "귀찮": 8780,
      "뽑히": 8781,
      "감독원": 8782,
      "GM": 8783,
      "고갈": 8784,
      "공룡": 8785,
      "끊이": 8786,
      "장르": 8787,
      "토착": 8788,
      "##페라": 8789,
      "관리청": 8790,
      "미국인": 8791,
      "막대하": 8792,
      "감찰": 8793,
      "모터": 8794,
      "보드": 8795,
      "예민": 8796,
      "피렌체": 8797,
      "행보": 8798,
      "정신과": 8799,
      "##ㅡㅡㅡㅡ": 8800,
      "금요일": 8801,
      "벨기에": 8802,
      "심포": 8803,
      "어지": 8804,
      "전입": 8805,
      "전당": 8806,
      "정면": 8807,
      "##사태": 8808,
      "##은색": 8809,
      "노동청": 8810,
      "활발히": 8811,
      "와이파이": 8812,
      "고졸": 8813,
      "김일": 8814,
      "민정": 8815,
      "부회장": 8816,
      "후계": 8817,
      "노동력": 8818,
      "수없이": 8819,
      "##모토": 8820,
      "다가가": 8821,
      "1948": 8822,
      "계열사": 8823,
      "발암": 8824,
      "승선": 8825,
      "유익": 8826,
      "트렌": 8827,
      "사로잡": 8828,
      "89": 8829,
      "버튼": 8830,
      "주먹": 8831,
      "콘스탄": 8832,
      "폐직": 8833,
      "화가": 8834,
      "##노스": 8835,
      "##차별": 8836,
      "##마르": 8837,
      "지방세": 8838,
      "카카오톡": 8839,
      "되돌리": 8840,
      "안성": 8841,
      "전방": 8842,
      "창덕": 8843,
      "현수": 8844,
      "외국어": 8845,
      "괴롭힘": 8846,
      "중장년": 8847,
      "이산화": 8848,
      "스크린": 8849,
      "날로": 8850,
      "떳떳": 8851,
      "장인": 8852,
      "칭하": 8853,
      "##카르": 8854,
      "운영자": 8855,
      "1986": 8856,
      "중화인민공화국": 8857,
      "GP": 8858,
      "경부": 8859,
      "나영": 8860,
      "드래": 8861,
      "현명": 8862,
      "##건강": 8863,
      "앞뒤": 8864,
      "전도": 8865,
      "주범": 8866,
      "운동장": 8867,
      "365": 8868,
      "빠져나가": 8869,
      "위배": 8870,
      "현저히": 8871,
      "희망자": 8872,
      "조종사": 8873,
      "국유": 8874,
      "보물": 8875,
      "식재료": 8876,
      "음란": 8877,
      "전무": 8878,
      "##티오": 8879,
      "조사관": 8880,
      "1200": 8881,
      "센터장": 8882,
      "파출소": 8883,
      "MBC": 8884,
      "마스터": 8885,
      "충성": 8886,
      "고무": 8887,
      "내전": 8888,
      "조립": 8889,
      "패스": 8890,
      "##상국": 8891,
      "대포": 8892,
      "속상하": 8893,
      "악마": 8894,
      "우정": 8895,
      "입체": 8896,
      "존엄": 8897,
      "어업인": 8898,
      "수기": 8899,
      "쟁이": 8900,
      "전적": 8901,
      "항생": 8902,
      "##라기": 8903,
      "##기술원": 8904,
      "전염병": 8905,
      "야영장": 8906,
      "CE": 8907,
      "IS": 8908,
      "가꾸": 8909,
      "고집": 8910,
      "되풀이": 8911,
      "의구": 8912,
      "##악산": 8913,
      "1962": 8914,
      "낙찰": 8915,
      "동아": 8916,
      "변이": 8917,
      "왕자": 8918,
      "창덕궁": 8919,
      "브루": 8920,
      "연세": 8921,
      "요한": 8922,
      "저리": 8923,
      "##드러지": 8924,
      "2050": 8925,
      "생계비": 8926,
      "넷째": 8927,
      "안착": 8928,
      "의류": 8929,
      "이순": 8930,
      "수사관": 8931,
      "등판": 8932,
      "용수": 8933,
      "제천": 8934,
      "처사": 8935,
      "회식": 8936,
      "사용료": 8937,
      "두려워하": 8938,
      "비타민": 8939,
      "엄연히": 8940,
      "차기": 8941,
      "##화고": 8942,
      "1919": 8943,
      "아쉬": 8944,
      "쿠데타": 8945,
      "신호등": 8946,
      "간판": 8947,
      "교묘": 8948,
      "정정": 8949,
      "총재": 8950,
      "##어서": 8951,
      "나폴레": 8952,
      "침묵": 8953,
      "포트": 8954,
      "환상": 8955,
      "수도권": 8956,
      "특성화고": 8957,
      "실수요": 8958,
      "의구심": 8959,
      "86": 8960,
      "문헌": 8961,
      "성사": 8962,
      "세수": 8963,
      "소명": 8964,
      "습득": 8965,
      "신흥": 8966,
      "여태": 8967,
      "##양림": 8968,
      "구조물": 8969,
      "1940": 8970,
      "WWE": 8971,
      "부득이": 8972,
      "관절": 8973,
      "내륙": 8974,
      "취미": 8975,
      "포스코": 8976,
      "항일": 8977,
      "해병대": 8978,
      "##도서": 8979,
      "##랜서": 8980,
      "동남아": 8981,
      "나폴레옹": 8982,
      "결단": 8983,
      "범법": 8984,
      "상거래": 8985,
      "세이": 8986,
      "수자원": 8987,
      "시리아": 8988,
      "안경": 8989,
      "울릉": 8990,
      "통영": 8991,
      "##버님": 8992,
      "인지도": 8993,
      "디스플레이": 8994,
      "관공서": 8995,
      "대조": 8996,
      "뒤늦": 8997,
      "명심": 8998,
      "밸리": 8999,
      "면허증": 9000,
      "감자": 9001,
      "거스르": 9002,
      "지목": 9003,
      "##우치": 9004,
      "한국산업": 9005,
      "교란": 9006,
      "꺼지": 9007,
      "아가": 9008,
      "##신교": 9009,
      "버젓이": 9010,
      "전두환": 9011,
      "가용": 9012,
      "꼼수": 9013,
      "날아오": 9014,
      "악의": 9015,
      "지질": 9016,
      "카자": 9017,
      "피크": 9018,
      "가치관": 9019,
      "프리랜서": 9020,
      "가급": 9021,
      "데이트": 9022,
      "자매": 9023,
      "조서": 9024,
      "라니요": 9025,
      "모스크바": 9026,
      "항생제": 9027,
      "가급적": 9028,
      "두개": 9029,
      "복직": 9030,
      "소견": 9031,
      "왕따": 9032,
      "행정관": 9033,
      "예의": 9034,
      "짐작": 9035,
      "카운": 9036,
      "##먼스": 9037,
      "개발자": 9038,
      "슬로건": 9039,
      "거르": 9040,
      "닥터": 9041,
      "의정부": 9042,
      "적기": 9043,
      "체온": 9044,
      "관리법": 9045,
      "충전소": 9046,
      "경호": 9047,
      "방면": 9048,
      "상정": 9049,
      "생육": 9050,
      "신도": 9051,
      "오브": 9052,
      "오버": 9053,
      "승강기": 9054,
      "거지": 9055,
      "도리": 9056,
      "바둑": 9057,
      "방통": 9058,
      "베스트": 9059,
      "비로": 9060,
      "1979": 9061,
      "##테이너": 9062,
      "스티커": 9063,
      "삽입": 9064,
      "파워": 9065,
      "##이팅": 9066,
      "##동생": 9067,
      "##휴양림": 9068,
      "##작물": 9069,
      "만세": 9070,
      "맘대로": 9071,
      "매트": 9072,
      "비축": 9073,
      "자질": 9074,
      "활기": 9075,
      "##토록": 9076,
      "유대인": 9077,
      "납치": 9078,
      "새마을": 9079,
      "연인": 9080,
      "잔여": 9081,
      "장마": 9082,
      "풍성": 9083,
      "##프레": 9084,
      "서울대학교": 9085,
      "##민주주의": 9086,
      "오스만": 9087,
      "수컷": 9088,
      "여사": 9089,
      "이모": 9090,
      "주소지": 9091,
      "NCS": 9092,
      "물놀이": 9093,
      "본관": 9094,
      "화제": 9095,
      "교량": 9096,
      "무너": 9097,
      "인천시": 9098,
      "북아": 9099,
      "요시": 9100,
      "유력": 9101,
      "천체": 9102,
      "소방차": 9103,
      "스프링": 9104,
      "걸맞": 9105,
      "구두": 9106,
      "매물": 9107,
      "민자": 9108,
      "병영": 9109,
      "시비": 9110,
      "연고": 9111,
      "##크리트": 9112,
      "더라면": 9113,
      "코로나19": 9114,
      "체육관": 9115,
      "교차로": 9116,
      "급성": 9117,
      "복제": 9118,
      "연잇": 9119,
      "유선": 9120,
      "##란색": 9121,
      "##단지": 9122,
      "##지않": 9123,
      "뮤지컬": 9124,
      "견학": 9125,
      "떨리": 9126,
      "탈세": 9127,
      "##같이": 9128,
      "등록증": 9129,
      "선착순": 9130,
      "메세지": 9131,
      "클리": 9132,
      "##이센": 9133,
      "서울역": 9134,
      "판매자": 9135,
      "이력서": 9136,
      "로스쿨": 9137,
      "군청": 9138,
      "기성": 9139,
      "대놓": 9140,
      "저수지": 9141,
      "키트": 9142,
      "마이크": 9143,
      "프레임": 9144,
      "KB": 9145,
      "들르": 9146,
      "약제": 9147,
      "퍼포": 9148,
      "함양": 9149,
      "사용량": 9150,
      "감염증": 9151,
      "다름없": 9152,
      "다투": 9153,
      "벤치": 9154,
      "선풍기": 9155,
      "101": 9156,
      "심포지": 9157,
      "도시락": 9158,
      "서열": 9159,
      "쇠퇴": 9160,
      "여섯": 9161,
      "워마드": 9162,
      "증세": 9163,
      "형법": 9164,
      "1972": 9165,
      "원주민": 9166,
      "두개골": 9167,
      "92": 9168,
      "노벨": 9169,
      "법학": 9170,
      "석면": 9171,
      "안중": 9172,
      "절도": 9173,
      "이재용": 9174,
      "성남시": 9175,
      "모금": 9176,
      "페트": 9177,
      "진단서": 9178,
      "주의자": 9179,
      "소재지": 9180,
      "벌금형": 9181,
      "광명": 9182,
      "그라": 9183,
      "떠넘기": 9184,
      "변질": 9185,
      "선로": 9186,
      "아랫": 9187,
      "이치": 9188,
      "햇빛": 9189,
      "##타이": 9190,
      "##숭이": 9191,
      "주거지": 9192,
      "지하수": 9193,
      "배출량": 9194,
      "구급차": 9195,
      "두르": 9196,
      "망명": 9197,
      "전복": 9198,
      "종묘": 9199,
      "청각": 9200,
      "총기": 9201,
      "추기": 9202,
      "회로": 9203,
      "178": 9204,
      "경찰청장": 9205,
      "선점": 9206,
      "우루스": 9207,
      "통행료": 9208,
      "재앙": 9209,
      "제압": 9210,
      "철강": 9211,
      "트램": 9212,
      "##NG": 9213,
      "능동": 9214,
      "사다리": 9215,
      "상부": 9216,
      "##타운": 9217,
      "##퍼드": 9218,
      "##려들": 9219,
      "조정실": 9220,
      "세종로": 9221,
      "플레이어": 9222,
      "등지": 9223,
      "병실": 9224,
      "일조": 9225,
      "후임": 9226,
      "연중": 9227,
      "융성": 9228,
      "침투": 9229,
      "##마토": 9230,
      "##틀러": 9231,
      "개신교": 9232,
      "대결": 9233,
      "마인": 9234,
      "면책": 9235,
      "실전": 9236,
      "엉망": 9237,
      "예우": 9238,
      "##순위": 9239,
      "가설": 9240,
      "드루": 9241,
      "엔터": 9242,
      "열쇠": 9243,
      "완치": 9244,
      "작금": 9245,
      "주저": 9246,
      "##AE": 9247,
      "##남기": 9248,
      "##뉴스": 9249,
      "기인": 9250,
      "더블": 9251,
      "이만": 9252,
      "1946": 9253,
      "간단히": 9254,
      "스쿨": 9255,
      "컨테이너": 9256,
      "플래": 9257,
      "다시금": 9258,
      "주무관": 9259,
      "안양": 9260,
      "준하": 9261,
      "콘크리트": 9262,
      "##오로": 9263,
      "그리하여": 9264,
      "CJ": 9265,
      "사막": 9266,
      "우즈": 9267,
      "위안": 9268,
      "전설": 9269,
      "##엑스": 9270,
      "182": 9271,
      "1982": 9272,
      "1971": 9273,
      "여의도": 9274,
      "교감": 9275,
      "노릇": 9276,
      "루트": 9277,
      "자사": 9278,
      "##외선": 9279,
      "대한제국": 9280,
      "##도서관": 9281,
      "퍼포먼스": 9282,
      "발족": 9283,
      "의욕": 9284,
      "적격": 9285,
      "주휴": 9286,
      "카풀": 9287,
      "1985": 9288,
      "구리": 9289,
      "기체": 9290,
      "빈도": 9291,
      "세척": 9292,
      "유능": 9293,
      "컬링": 9294,
      "##소프트": 9295,
      "##릭스": 9296,
      "우수상": 9297,
      "93": 9298,
      "관장": 9299,
      "대성": 9300,
      "번거": 9301,
      "염증": 9302,
      "영화관": 9303,
      "기념관": 9304,
      "버팀": 9305,
      "심야": 9306,
      "한하": 9307,
      "보유자": 9308,
      "출입구": 9309,
      "세무서": 9310,
      "ᆫ단": 9311,
      "예배": 9312,
      "출품": 9313,
      "##부인": 9314,
      "##발전": 9315,
      "##베르크": 9316,
      "마음껏": 9317,
      "1973": 9318,
      "노르웨이": 9319,
      "관용": 9320,
      "발현": 9321,
      "보일러": 9322,
      "유급": 9323,
      "전진": 9324,
      "##비치": 9325,
      "공세": 9326,
      "그늘": 9327,
      "김구": 9328,
      "분당": 9329,
      "수교": 9330,
      "주역": 9331,
      "지부": 9332,
      "최후": 9333,
      "전문의": 9334,
      "대출금": 9335,
      "재판관": 9336,
      "덕수": 9337,
      "도급": 9338,
      "딸아이": 9339,
      "배부": 9340,
      "부풀": 9341,
      "시료": 9342,
      "연동": 9343,
      "우위": 9344,
      "즈음": 9345,
      "프라이": 9346,
      "##현실": 9347,
      "##래도": 9348,
      "상담원": 9349,
      "풍부하": 9350,
      "동상": 9351,
      "원동": 9352,
      "원룸": 9353,
      "항체": 9354,
      "법률안": 9355,
      "인디언": 9356,
      "추기경": 9357,
      "동굴": 9358,
      "맛보": 9359,
      "매국": 9360,
      "상원": 9361,
      "영혼": 9362,
      "##후군": 9363,
      "사실상": 9364,
      "기아": 9365,
      "이온": 9366,
      "파라": 9367,
      "향유": 9368,
      "##다운": 9369,
      "기업체": 9370,
      "현행법": 9371,
      "따뜻하": 9372,
      "잠수함": 9373,
      "무더위": 9374,
      "곰팡이": 9375,
      "차입": 9376,
      "측량": 9377,
      "##ED": 9378,
      "마주치": 9379,
      "뛰어들": 9380,
      "역내": 9381,
      "잠정": 9382,
      "파기": 9383,
      "막강": 9384,
      "문양": 9385,
      "배후": 9386,
      "분권": 9387,
      "일산": 9388,
      "지극": 9389,
      "##레르": 9390,
      "한국관광": 9391,
      "가장자리": 9392,
      "휴가철": 9393,
      "연령대": 9394,
      "대놓고": 9395,
      "농기계": 9396,
      "댓가": 9397,
      "박차": 9398,
      "배양": 9399,
      "빛나": 9400,
      "폭로": 9401,
      "181": 9402,
      "버팀목": 9403,
      "96": 9404,
      "악성": 9405,
      "액수": 9406,
      "작위": 9407,
      "헤이": 9408,
      "##리안": 9409,
      "##검사": 9410,
      "수요일": 9411,
      "심포지엄": 9412,
      "고층": 9413,
      "공천": 9414,
      "동방": 9415,
      "라오스": 9416,
      "스승": 9417,
      "접어들": 9418,
      "총액": 9419,
      "화이트": 9420,
      "##니즘": 9421,
      "한국수": 9422,
      "연구진": 9423,
      "교통비": 9424,
      "이민자": 9425,
      "굳건": 9426,
      "김기": 9427,
      "분화": 9428,
      "음파": 9429,
      "##벌레": 9430,
      "종로구": 9431,
      "자긍": 9432,
      "종식": 9433,
      "철새": 9434,
      "할부": 9435,
      "수출입": 9436,
      "부산광역시": 9437,
      "현수막": 9438,
      "졸음": 9439,
      "진격": 9440,
      "편향": 9441,
      "힘입": 9442,
      "고소인": 9443,
      "고지서": 9444,
      "김일성": 9445,
      "카자흐": 9446,
      "빗물": 9447,
      "위헌": 9448,
      "자긍심": 9449,
      "94": 9450,
      "기생": 9451,
      "동선": 9452,
      "흑자": 9453,
      "##이크": 9454,
      "프로이센": 9455,
      "사이비": 9456,
      "현대자동차": 9457,
      "강대국": 9458,
      "거제": 9459,
      "도무지": 9460,
      "밀양": 9461,
      "벽화": 9462,
      "봄철": 9463,
      "뻔뻔": 9464,
      "쿠폰": 9465,
      "##중앙회": 9466,
      "뒤지": 9467,
      "사촌": 9468,
      "숨지": 9469,
      "오죽": 9470,
      "혈관": 9471,
      "힐링": 9472,
      "##든지": 9473,
      "사업단": 9474,
      "영위": 9475,
      "카톡": 9476,
      "합창": 9477,
      "헤아리": 9478,
      "##왜란": 9479,
      "수영장": 9480,
      "임진왜란": 9481,
      "모빌": 9482,
      "이체": 9483,
      "지중": 9484,
      "칸막이": 9485,
      "탐구": 9486,
      "##소시": 9487,
      "##노인": 9488,
      "윈도우": 9489,
      "목욕": 9490,
      "약탈": 9491,
      "연애": 9492,
      "예시": 9493,
      "##사르": 9494,
      "1968": 9495,
      "소스": 9496,
      "##테인": 9497,
      "결실": 9498,
      "대기업": 9499,
      "두드러지": 9500,
      "리츠": 9501,
      "어음": 9502,
      "참관": 9503,
      "지금껏": 9504,
      "시카": 9505,
      "유감": 9506,
      "엑스포": 9507,
      "오피스텔": 9508,
      "뻔하": 9509,
      "운임": 9510,
      "유교": 9511,
      "재편": 9512,
      "차주": 9513,
      "컨퍼런스": 9514,
      "평상": 9515,
      "##식물": 9516,
      "보육료": 9517,
      "도주": 9518,
      "맛집": 9519,
      "신인": 9520,
      "신약": 9521,
      "심히": 9522,
      "용돈": 9523,
      "전경": 9524,
      "턱없이": 9525,
      "자연휴양림": 9526,
      "1984": 9527,
      "당진": 9528,
      "발레": 9529,
      "승부": 9530,
      "실직": 9531,
      "쌍방": 9532,
      "우롱": 9533,
      "잔치": 9534,
      "##재판": 9535,
      "중개사": 9536,
      "오사카": 9537,
      "그레": 9538,
      "대접": 9539,
      "뮤직": 9540,
      "봉쇄": 9541,
      "왕복": 9542,
      "위약": 9543,
      "직속": 9544,
      "태아": 9545,
      "화산": 9546,
      "##데스": 9547,
      "##프리": 9548,
      "소방서": 9549,
      "1969": 9550,
      "결탁": 9551,
      "난이도": 9552,
      "방패": 9553,
      "저조": 9554,
      "정자": 9555,
      "라이트": 9556,
      "마찰": 9557,
      "부사": 9558,
      "시공사": 9559,
      "연소": 9560,
      "최우": 9561,
      "##보호": 9562,
      "##볼라": 9563,
      "흘러가": 9564,
      "무산": 9565,
      "우기": 9566,
      "항암": 9567,
      "##베스": 9568,
      "주유소": 9569,
      "급등": 9570,
      "사비": 9571,
      "원청": 9572,
      "장성": 9573,
      "전례": 9574,
      "참담": 9575,
      "##IS": 9576,
      "한국도로": 9577,
      "한국도로공사": 9578,
      "수목": 9579,
      "순식": 9580,
      "자의": 9581,
      "특유": 9582,
      "판교": 9583,
      "비교적": 9584,
      "진정하": 9585,
      "1949": 9586,
      "엘레": 9587,
      "자궁": 9588,
      "복지관": 9589,
      "긴밀하": 9590,
      "니콜": 9591,
      "없어지": 9592,
      "홍남기": 9593,
      "미납": 9594,
      "아산": 9595,
      "용납": 9596,
      "조제": 9597,
      "##사리": 9598,
      "위약금": 9599,
      "치킨": 9600,
      "1900": 9601,
      "밀라노": 9602,
      "전라도": 9603,
      "체코": 9604,
      "##벤션": 9605,
      "아무래도": 9606,
      "통신망": 9607,
      "대동": 9608,
      "전임": 9609,
      "회색": 9610,
      "##통제": 9611,
      "성형": 9612,
      "수물": 9613,
      "유라": 9614,
      "특사": 9615,
      "포격": 9616,
      "##에이터": 9617,
      "##티스": 9618,
      "한국장": 9619,
      "광복절": 9620,
      "가야": 9621,
      "교리": 9622,
      "선장": 9623,
      "처치": 9624,
      "##떨어지": 9625,
      "소화기": 9626,
      "크로아": 9627,
      "트렌드": 9628,
      "MR": 9629,
      "고고": 9630,
      "고래": 9631,
      "너희": 9632,
      "상무": 9633,
      "외모": 9634,
      "인과": 9635,
      "재심": 9636,
      "재질": 9637,
      "##기능": 9638,
      "누수": 9639,
      "막내": 9640,
      "서포": 9641,
      "첫날": 9642,
      "##수수": 9643,
      "어린아이": 9644,
      "공방": 9645,
      "본회의": 9646,
      "씨앗": 9647,
      "전년도": 9648,
      "김현미": 9649,
      "중환자실": 9650,
      "덕수궁": 9651,
      "97": 9652,
      "그루": 9653,
      "석사": 9654,
      "흙수저": 9655,
      "지리산": 9656,
      "친일파": 9657,
      "아쉬움": 9658,
      "경산": 9659,
      "단정": 9660,
      "병동": 9661,
      "##통신": 9662,
      "홍보관": 9663,
      "신뢰도": 9664,
      "고추": 9665,
      "관내": 9666,
      "띄우": 9667,
      "민법": 9668,
      "사제": 9669,
      "소금": 9670,
      "아키": 9671,
      "재량": 9672,
      "증식": 9673,
      "피곤": 9674,
      "##사람": 9675,
      "##가루": 9676,
      "##상공": 9677,
      "영화제": 9678,
      "자원봉사": 9679,
      "세관": 9680,
      "이라도": 9681,
      "##학과": 9682,
      "이라크": 9683,
      "급진": 9684,
      "수직": 9685,
      "유고": 9686,
      "인형": 9687,
      "##저우": 9688,
      "##습기": 9689,
      "900": 9690,
      "재래": 9691,
      "전월": 9692,
      "##처럼": 9693,
      "비서관": 9694,
      "호기심": 9695,
      "레오": 9696,
      "상설": 9697,
      "실사": 9698,
      "요약": 9699,
      "코레일": 9700,
      "산업체": 9701,
      "금하": 9702,
      "데려가": 9703,
      "빈틈": 9704,
      "유권자": 9705,
      "장갑": 9706,
      "중력": 9707,
      "타임": 9708,
      "##휴직": 9709,
      "1983": 9710,
      "DB": 9711,
      "국한": 9712,
      "낙인": 9713,
      "대공": 9714,
      "세인트": 9715,
      "오페라": 9716,
      "상세히": 9717,
      "리더십": 9718,
      "나열": 9719,
      "실세": 9720,
      "역차별": 9721,
      "음모": 9722,
      "책무": 9723,
      "철폐": 9724,
      "컨소시": 9725,
      "하향": 9726,
      "고용주": 9727,
      "육아휴직": 9728,
      "페르시아": 9729,
      "낙후": 9730,
      "백두": 9731,
      "송파": 9732,
      "저러": 9733,
      "정형": 9734,
      "질소": 9735,
      "##마켓": 9736,
      "프로그래": 9737,
      "2023": 9738,
      "조선민주주의": 9739,
      "비로소": 9740,
      "조선민주주의인민공화국": 9741,
      "ㅋㅋㅋ": 9742,
      "도청": 9743,
      "성년자": 9744,
      "수가": 9745,
      "예찰": 9746,
      "유휴": 9747,
      "정주": 9748,
      "한화": 9749,
      "##덕이": 9750,
      "바이어": 9751,
      "걸림": 9752,
      "기호": 9753,
      "논하": 9754,
      "조형": 9755,
      "##선수": 9756,
      "지하철역": 9757,
      "클래스": 9758,
      "걸림돌": 9759,
      "김장": 9760,
      "대지": 9761,
      "로그": 9762,
      "묵살": 9763,
      "사임": 9764,
      "생업": 9765,
      "을수록": 9766,
      "입상": 9767,
      "타결": 9768,
      "##테스": 9769,
      "운영비": 9770,
      "1953": 9771,
      "미화": 9772,
      "킬로": 9773,
      "포지": 9774,
      "한꺼": 9775,
      "행위자": 9776,
      "협약식": 9777,
      "350": 9778,
      "당당히": 9779,
      "한국관광공사": 9780,
      "한꺼번에": 9781,
      "가루": 9782,
      "아베": 9783,
      "절박": 9784,
      "탁월": 9785,
      "투여": 9786,
      "프랑크": 9787,
      "마땅히": 9788,
      "채권자": 9789,
      "죄송하": 9790,
      "신생아": 9791,
      "나영이": 9792,
      "간첩": 9793,
      "고취": 9794,
      "당원": 9795,
      "서술": 9796,
      "애매": 9797,
      "여경": 9798,
      "허술": 9799,
      "1975": 9800,
      "경미": 9801,
      "또래": 9802,
      "시흥": 9803,
      "주전": 9804,
      "##수산물": 9805,
      "재판부": 9806,
      "PD": 9807,
      "매달리": 9808,
      "메모리": 9809,
      "민방위": 9810,
      "스카": 9811,
      "아늑": 9812,
      "##수상": 9813,
      "조선족": 9814,
      "카자흐스탄": 9815,
      "컨소시엄": 9816,
      "FA": 9817,
      "마중": 9818,
      "사병": 9819,
      "촘촘": 9820,
      "허다": 9821,
      "##바다": 9822,
      "메이커": 9823,
      "시카고": 9824,
      "미니": 9825,
      "불꽃": 9826,
      "슬픔": 9827,
      "쓸모": 9828,
      "##노총": 9829,
      "##계약": 9830,
      "동의서": 9831,
      "당기": 9832,
      "디돌": 9833,
      "디스크": 9834,
      "망설": 9835,
      "비료": 9836,
      "소정": 9837,
      "여인": 9838,
      "차갑": 9839,
      "테라스": 9840,
      "페루": 9841,
      "##충전소": 9842,
      "##TO": 9843,
      "생각나": 9844,
      "교육원": 9845,
      "전투기": 9846,
      "이순신": 9847,
      "과속": 9848,
      "동대문": 9849,
      "북동": 9850,
      "산사태": 9851,
      "정유": 9852,
      "항쟁": 9853,
      "##피탈": 9854,
      "수소충전소": 9855,
      "천문학": 9856,
      "눈앞": 9857,
      "평년": 9858,
      "히틀러": 9859,
      "이야말로": 9860,
      "재택근무": 9861,
      "각하": 9862,
      "대본": 9863,
      "로버트": 9864,
      "##HO": 9865,
      "##꼬박": 9866,
      "##돌리": 9867,
      "1974": 9868,
      "##드리히": 9869,
      "꼬박꼬박": 9870,
      "무너뜨리": 9871,
      "로컬": 9872,
      "미수": 9873,
      "상류": 9874,
      "세분": 9875,
      "시한": 9876,
      "제철": 9877,
      "여행지": 9878,
      "구름": 9879,
      "둔화": 9880,
      "여단": 9881,
      "자이": 9882,
      "코엑스": 9883,
      "##서부": 9884,
      "제조사": 9885,
      "궁금증": 9886,
      "다하": 9887,
      "미미": 9888,
      "이쁘": 9889,
      "최다": 9890,
      "##미술": 9891,
      "##영향": 9892,
      "1967": 9893,
      "변환": 9894,
      "선두": 9895,
      "재직자": 9896,
      "차트": 9897,
      "학비": 9898,
      "##사스": 9899,
      "가두": 9900,
      "날아가": 9901,
      "돌입": 9902,
      "생선": 9903,
      "알아내": 9904,
      "오케": 9905,
      "왕비": 9906,
      "##티노": 9907,
      "크리스마스": 9908,
      "CEO": 9909,
      "크로아티아": 9910,
      "궁전": 9911,
      "안토": 9912,
      "에볼라": 9913,
      "입각": 9914,
      "차익": 9915,
      "찰스": 9916,
      "##십자": 9917,
      "##멘트": 9918,
      "장난감": 9919,
      "마일리지": 9920,
      "감액": 9921,
      "등본": 9922,
      "빨래": 9923,
      "실외": 9924,
      "에코": 9925,
      "축산물": 9926,
      "건축가": 9927,
      "구매자": 9928,
      "되새": 9929,
      "악질": 9930,
      "점진": 9931,
      "##베리아": 9932,
      "전화번호": 9933,
      "생물학": 9934,
      "##위원장": 9935,
      "화합물": 9936,
      "법치주의": 9937,
      "실수요자": 9938,
      "리우": 9939,
      "보직": 9940,
      "애정": 9941,
      "영남": 9942,
      "유림": 9943,
      "쟁점": 9944,
      "주석": 9945,
      "트위": 9946,
      "끌어올리": 9947,
      "공교육": 9948,
      "기가": 9949,
      "끌려가": 9950,
      "장터": 9951,
      "코르": 9952,
      "##시고": 9953,
      "##에이": 9954,
      "##포구": 9955,
      "1981": 9956,
      "1963": 9957,
      "스케이팅": 9958,
      "자존심": 9959,
      "살균제": 9960,
      "균등": 9961,
      "근접": 9962,
      "지갑": 9963,
      "상담회": 9964,
      "작곡가": 9965,
      "개회식": 9966,
      "거세": 9967,
      "무식": 9968,
      "발탁": 9969,
      "아까": 9970,
      "터전": 9971,
      "신청인": 9972,
      "기념일": 9973,
      "살인자": 9974,
      "감금": 9975,
      "공신": 9976,
      "농부": 9977,
      "명나라": 9978,
      "영입": 9979,
      "##CA": 9980,
      "##어내": 9981,
      "159": 9982,
      "1978": 9983,
      "프리드리히": 9984,
      "명백히": 9985,
      "거북": 9986,
      "닥치": 9987,
      "인자": 9988,
      "직불": 9989,
      "함락": 9990,
      "##리우스": 9991,
      "##버그": 9992,
      "사명감": 9993,
      "개봉": 9994,
      "김관": 9995,
      "달려가": 9996,
      "맨날": 9997,
      "병들": 9998,
      "보름": 9999,
      "신사": 10000,
      "절단": 10001,
      "이해관계자": 10002,
      "독거노인": 10003,
      "육지": 10004,
      "출구": 10005,
      "폐해": 10006,
      "해법": 10007,
      "##갱이": 10008,
      "목적지": 10009,
      "후보지": 10010,
      "급급": 10011,
      "아버님": 10012,
      "##크스": 10013,
      "1976": 10014,
      "1964": 10015,
      "적절하": 10016,
      "주행차": 10017,
      "지상파": 10018,
      "거시": 10019,
      "건네": 10020,
      "돌이": 10021,
      "사자": 10022,
      "주시": 10023,
      "##나들": 10024,
      "대구시": 10025,
      "518": 10026,
      "장례식": 10027,
      "가습기": 10028,
      "냐며": 10029,
      "돌려받": 10030,
      "스리": 10031,
      "탐험": 10032,
      "한양": 10033,
      "##일비": 10034,
      "##관리공단": 10035,
      "달래": 10036,
      "떠돌": 10037,
      "알맞": 10038,
      "주파": 10039,
      "침구": 10040,
      "##부모": 10041,
      "##외과": 10042,
      "국민건강": 10043,
      "내다보": 10044,
      "냉동": 10045,
      "무수": 10046,
      "입문": 10047,
      "##메리": 10048,
      "##니스탄": 10049,
      "건너가": 10050,
      "곡선": 10051,
      "산모": 10052,
      "시제품": 10053,
      "여동생": 10054,
      "을려": 10055,
      "장남": 10056,
      "치마": 10057,
      "표적": 10058,
      "##로이": 10059,
      "##기사": 10060,
      "담당관": 10061,
      "공범": 10062,
      "전전": 10063,
      "편익": 10064,
      "##TS": 10065,
      "한국문화": 10066,
      "조직위": 10067,
      "1944": 10068,
      "플랜트": 10069,
      "내밀": 10070,
      "면회": 10071,
      "송출": 10072,
      "여신": 10073,
      "임종": 10074,
      "하인": 10075,
      "한우": 10076,
      "환원": 10077,
      "##지능": 10078,
      "어야지요": 10079,
      "코스닥": 10080,
      "표지판": 10081,
      "알렉산드": 10082,
      "골절": 10083,
      "변수": 10084,
      "회화": 10085,
      "##티드": 10086,
      "##슬링": 10087,
      "##물리": 10088,
      "그래픽": 10089,
      "명확하": 10090,
      "중화민국": 10091,
      "묵묵히": 10092,
      "교훈": 10093,
      "반사": 10094,
      "색상": 10095,
      "여왕": 10096,
      "웨스트": 10097,
      "장년": 10098,
      "행진": 10099,
      "휘두르": 10100,
      "##던지": 10101,
      "여성분": 10102,
      "하루빨리": 10103,
      "클래식": 10104,
      "남학생": 10105,
      "동조": 10106,
      "베드": 10107,
      "불상": 10108,
      "비준": 10109,
      "신탁": 10110,
      "잇따르": 10111,
      "호의": 10112,
      "교통량": 10113,
      "각기": 10114,
      "발걸음": 10115,
      "##란트": 10116,
      "후계자": 10117,
      "관직": 10118,
      "국익": 10119,
      "국책": 10120,
      "돋보이": 10121,
      "아라": 10122,
      "온몸": 10123,
      "의병": 10124,
      "##성이": 10125,
      "교민": 10126,
      "다카": 10127,
      "방류": 10128,
      "수역": 10129,
      "시동": 10130,
      "외관": 10131,
      "인연": 10132,
      "투구": 10133,
      "헤어지": 10134,
      "동물원": 10135,
      "출판사": 10136,
      "관습": 10137,
      "단풍": 10138,
      "독감": 10139,
      "새우": 10140,
      "순직": 10141,
      "전학": 10142,
      "하사": 10143,
      "152": 10144,
      "개업": 10145,
      "대관": 10146,
      "북구": 10147,
      "상응": 10148,
      "시너지": 10149,
      "오만": 10150,
      "입맛": 10151,
      "재차": 10152,
      "화살": 10153,
      "효능": 10154,
      "농경": 10155,
      "대법원": 10156,
      "레인": 10157,
      "비스": 10158,
      "선순환": 10159,
      "수월": 10160,
      "영예": 10161,
      "체질": 10162,
      "추이": 10163,
      "퀴즈": 10164,
      "##스테": 10165,
      "##17": 10166,
      "미혼모": 10167,
      "모빌리티": 10168,
      "나노": 10169,
      "다변": 10170,
      "분식": 10171,
      "성직자": 10172,
      "쓸데": 10173,
      "일각": 10174,
      "초년": 10175,
      "거래법": 10176,
      "WHO": 10177,
      "강압": 10178,
      "김부": 10179,
      "사양": 10180,
      "실버": 10181,
      "알코": 10182,
      "여군": 10183,
      "영등": 10184,
      "응대": 10185,
      "##상위": 10186,
      "물리치": 10187,
      "라틴": 10188,
      "밀폐": 10189,
      "식기": 10190,
      "영지": 10191,
      "지각": 10192,
      "파생": 10193,
      "##경궁": 10194,
      "##커녕": 10195,
      "##쇼핑": 10196,
      "강남구": 10197,
      "부두": 10198,
      "소진": 10199,
      "엉터리": 10200,
      "역설": 10201,
      "참조": 10202,
      "피드": 10203,
      "하물": 10204,
      "##수당": 10205,
      "##DP": 10206,
      "하물며": 10207,
      "내진": 10208,
      "데려오": 10209,
      "방조": 10210,
      "부응": 10211,
      "위급": 10212,
      "채팅": 10213,
      "탱크": 10214,
      "불명": 10215,
      "상수도": 10216,
      "수협": 10217,
      "저기": 10218,
      "측근": 10219,
      "포화": 10220,
      "##무실": 10221,
      "2500": 10222,
      "지극히": 10223,
      "유라시아": 10224,
      "산타": 10225,
      "익산": 10226,
      "편파": 10227,
      "##린지": 10228,
      "##희정": 10229,
      "독일군": 10230,
      "인공지능": 10231,
      "샌드박스": 10232,
      "간신": 10233,
      "노령": 10234,
      "동탄": 10235,
      "입영": 10236,
      "조만": 10237,
      "창단": 10238,
      "콜롬": 10239,
      "중고차": 10240,
      "보살피": 10241,
      "과자": 10242,
      "옆집": 10243,
      "팩트": 10244,
      "현관": 10245,
      "에드워드": 10246,
      "공짜": 10247,
      "농작물": 10248,
      "실기": 10249,
      "역활": 10250,
      "##과점": 10251,
      "평가단": 10252,
      "금강산": 10253,
      "피고인": 10254,
      "당사국": 10255,
      "매스": 10256,
      "장래": 10257,
      "한숨": 10258,
      "알려주": 10259,
      "우즈베": 10260,
      "광역시": 10261,
      "미처": 10262,
      "봉기": 10263,
      "서초": 10264,
      "오시": 10265,
      "원내": 10266,
      "잠기": 10267,
      "##성기": 10268,
      "##주의자": 10269,
      "##진흥공단": 10270,
      "도마": 10271,
      "무급": 10272,
      "미션": 10273,
      "승소": 10274,
      "신변": 10275,
      "여고": 10276,
      "온전히": 10277,
      "제네": 10278,
      "제때": 10279,
      "쳐다보": 10280,
      "태안": 10281,
      "##산림": 10282,
      "##DA": 10283,
      "##면허": 10284,
      "느냐고": 10285,
      "최우수상": 10286,
      "부사관": 10287,
      "약품": 10288,
      "이영": 10289,
      "충주": 10290,
      "탄도": 10291,
      "페미": 10292,
      "폐차": 10293,
      "한진": 10294,
      "133": 10295,
      "모리": 10296,
      "박히": 10297,
      "사학": 10298,
      "세비": 10299,
      "악법": 10300,
      "##그마": 10301,
      "##기록": 10302,
      "불어넣": 10303,
      "공략": 10304,
      "셔틀": 10305,
      "##와이": 10306,
      "안내서": 10307,
      "주휴수당": 10308,
      "##테인먼트": 10309,
      "복도": 10310,
      "비일비": 10311,
      "점주": 10312,
      "허울": 10313,
      "##디스": 10314,
      "협력사": 10315,
      "특별전": 10316,
      "이재명": 10317,
      "조지아": 10318,
      "일기": 10319,
      "제지": 10320,
      "치부": 10321,
      "##탄소": 10322,
      "매니저": 10323,
      "받치": 10324,
      "서대문": 10325,
      "망설이": 10326,
      "당나라": 10327,
      "동호": 10328,
      "묘지": 10329,
      "상봉": 10330,
      "이고": 10331,
      "증후군": 10332,
      "침실": 10333,
      "케이스": 10334,
      "##니스트": 10335,
      "1800": 10336,
      "애국심": 10337,
      "후쿠시마": 10338,
      "세르비아": 10339,
      "고아": 10340,
      "매몰": 10341,
      "숙지": 10342,
      "어미": 10343,
      "에피": 10344,
      "일베": 10345,
      "##리즘": 10346,
      "##예술": 10347,
      "##젤레스": 10348,
      "##특별자치": 10349,
      "모친": 10350,
      "생략": 10351,
      "저가": 10352,
      "##커스": 10353,
      "어리석": 10354,
      "골드": 10355,
      "노년": 10356,
      "사익": 10357,
      "서방": 10358,
      "압축": 10359,
      "이니": 10360,
      "하부": 10361,
      "현존": 10362,
      "호르": 10363,
      "##케어": 10364,
      "##걸리": 10365,
      "언론인": 10366,
      "1977": 10367,
      "EBS": 10368,
      "거울": 10369,
      "고비": 10370,
      "두드리": 10371,
      "물려주": 10372,
      "샤를": 10373,
      "편찬": 10374,
      "##저것": 10375,
      "##약자": 10376,
      "##월드": 10377,
      "이것저것": 10378,
      "1958": 10379,
      "부가세": 10380,
      "소독제": 10381,
      "경산시": 10382,
      "당직": 10383,
      "덩어리": 10384,
      "미숙": 10385,
      "안장": 10386,
      "표출": 10387,
      "해리": 10388,
      "##비드": 10389,
      "##RT": 10390,
      "105": 10391,
      "파트너십": 10392,
      "방통위": 10393,
      "포지션": 10394,
      "되새기": 10395,
      "남짓": 10396,
      "넘겨": 10397,
      "대마": 10398,
      "##재해": 10399,
      "마이클": 10400,
      "저작권": 10401,
      "노랗": 10402,
      "노약자": 10403,
      "막말": 10404,
      "송도": 10405,
      "이불": 10406,
      "직거래": 10407,
      "장애물": 10408,
      "1961": 10409,
      "ㅎㅎㅎ": 10410,
      "울릉도": 10411,
      "규탄": 10412,
      "들려주": 10413,
      "려니": 10414,
      "벌리": 10415,
      "불확": 10416,
      "수의": 10417,
      "이륜": 10418,
      "정문": 10419,
      "크라우드": 10420,
      "클린": 10421,
      "폭격": 10422,
      "뛰어넘": 10423,
      "공과": 10424,
      "맞대": 10425,
      "오이": 10426,
      "옥수수": 10427,
      "이에": 10428,
      "쫓겨나": 10429,
      "탈취": 10430,
      "##시대": 10431,
      "##오카": 10432,
      "##어놓": 10433,
      "##거나": 10434,
      "##세이": 10435,
      "레이더": 10436,
      "엄격히": 10437,
      "증권사": 10438,
      "알코올": 10439,
      "불확실": 10440,
      "금수저": 10441,
      "담그": 10442,
      "분통": 10443,
      "시트": 10444,
      "애완": 10445,
      "외무": 10446,
      "포유": 10447,
      "177": 10448,
      "조정관": 10449,
      "전망대": 10450,
      "1966": 10451,
      "고양시": 10452,
      "원활히": 10453,
      "브레이크": 10454,
      "평상시": 10455,
      "객실": 10456,
      "말소": 10457,
      "배기": 10458,
      "설레": 10459,
      "센타": 10460,
      "접경": 10461,
      "정무": 10462,
      "다니요": 10463,
      "영상물": 10464,
      "검열": 10465,
      "멀티": 10466,
      "어류": 10467,
      "##데이트": 10468,
      "##일으키": 10469,
      "불러일으키": 10470,
      "비일비재": 10471,
      "광양": 10472,
      "기운": 10473,
      "단식": 10474,
      "대내": 10475,
      "문턱": 10476,
      "민가": 10477,
      "수동": 10478,
      "시야": 10479,
      "영동": 10480,
      "원양": 10481,
      "호전": 10482,
      "##꾸로": 10483,
      "선언문": 10484,
      "이어서": 10485,
      "조속하": 10486,
      "워킹맘": 10487,
      "극도": 10488,
      "낙하": 10489,
      "남매": 10490,
      "다단": 10491,
      "몰수": 10492,
      "복장": 10493,
      "수탁": 10494,
      "에펠": 10495,
      "텍사스": 10496,
      "폐사": 10497,
      "음악회": 10498,
      "실무자": 10499,
      "베네치아": 10500,
      "간혹": 10501,
      "본론": 10502,
      "센트": 10503,
      "정답": 10504,
      "중위": 10505,
      "포착": 10506,
      "검사소": 10507,
      "136": 10508,
      "1941": 10509,
      "사상자": 10510,
      "부흥": 10511,
      "서원": 10512,
      "식중": 10513,
      "싸이": 10514,
      "후지": 10515,
      "##에스": 10516,
      "##운서": 10517,
      "실험실": 10518,
      "해운대": 10519,
      "법조인": 10520,
      "격하": 10521,
      "경정": 10522,
      "미주": 10523,
      "방언": 10524,
      "실생활": 10525,
      "실거래": 10526,
      "재혼": 10527,
      "존속": 10528,
      "법제처": 10529,
      "고온": 10530,
      "날카": 10531,
      "비만": 10532,
      "왕릉": 10533,
      "철원": 10534,
      "프레스": 10535,
      "후방": 10536,
      "휘발": 10537,
      "##노이": 10538,
      "단기간": 10539,
      "골프장": 10540,
      "성기": 10541,
      "셀프": 10542,
      "양파": 10543,
      "증여": 10544,
      "퇴임": 10545,
      "평안": 10546,
      "##에트": 10547,
      "##지원": 10548,
      "##메이": 10549,
      "아이디": 10550,
      "경제학": 10551,
      "기술원": 10552,
      "고속버스": 10553,
      "박영선": 10554,
      "강수": 10555,
      "박상": 10556,
      "쌍둥이": 10557,
      "연명": 10558,
      "##기관": 10559,
      "적절히": 10560,
      "충전기": 10561,
      "강당": 10562,
      "거동": 10563,
      "귀엽": 10564,
      "글씨": 10565,
      "기습": 10566,
      "업데이트": 10567,
      "##흥민": 10568,
      "인사처": 10569,
      "라이프": 10570,
      "개교": 10571,
      "국빈": 10572,
      "급수": 10573,
      "급행": 10574,
      "담뱃": 10575,
      "성벽": 10576,
      "야마": 10577,
      "우산": 10578,
      "제반": 10579,
      "중등": 10580,
      "허물": 10581,
      "##수리": 10582,
      "기업부": 10583,
      "북한군": 10584,
      "마인드": 10585,
      "날카롭": 10586,
      "감행": 10587,
      "잔류": 10588,
      "튜닝": 10589,
      "할랄": 10590,
      "##추어": 10591,
      "확실하": 10592,
      "아나운서": 10593,
      "LP": 10594,
      "몰락": 10595,
      "보리": 10596,
      "선양": 10597,
      "악영향": 10598,
      "앞세우": 10599,
      "조경": 10600,
      "지반": 10601,
      "크림": 10602,
      "크로스": 10603,
      "##갈리": 10604,
      "다단계": 10605,
      "간직": 10606,
      "녹화": 10607,
      "마라": 10608,
      "반출": 10609,
      "백인": 10610,
      "수억": 10611,
      "여정": 10612,
      "원로": 10613,
      "차상위": 10614,
      "한민": 10615,
      "##베이스": 10616,
      "중심부": 10617,
      "충청북도": 10618,
      "서포터": 10619,
      "따름": 10620,
      "시드": 10621,
      "신안": 10622,
      "중성": 10623,
      "호스": 10624,
      "##플러스": 10625,
      "재산세": 10626,
      "스피드": 10627,
      "사관학교": 10628,
      "원동력": 10629,
      "개화": 10630,
      "귀중": 10631,
      "선의": 10632,
      "점프": 10633,
      "함수": 10634,
      "허덕이": 10635,
      "1965": 10636,
      "전세금": 10637,
      "디젤": 10638,
      "온난": 10639,
      "##교회": 10640,
      "##물질": 10641,
      "예정자": 10642,
      "##개발원": 10643,
      "간신히": 10644,
      "조만간": 10645,
      "걷기": 10646,
      "공법": 10647,
      "명동": 10648,
      "불시": 10649,
      "손흥민": 10650,
      "컨벤션": 10651,
      "트랜": 10652,
      "흉악": 10653,
      "##디움": 10654,
      "##인력": 10655,
      "특례법": 10656,
      "어지럽": 10657,
      "많아지": 10658,
      "몰아내": 10659,
      "방음": 10660,
      "이국": 10661,
      "적화": 10662,
      "팽창": 10663,
      "폐암": 10664,
      "##다지": 10665,
      "관리원": 10666,
      "두껍": 10667,
      "메우": 10668,
      "영감": 10669,
      "의상": 10670,
      "자정": 10671,
      "클레": 10672,
      "##대교": 10673,
      "##증권": 10674,
      "사이클": 10675,
      "노래방": 10676,
      "체감도": 10677,
      "경악": 10678,
      "관청": 10679,
      "대위": 10680,
      "메리": 10681,
      "모방": 10682,
      "봉급": 10683,
      "##목적": 10684,
      "공사비": 10685,
      "국민연금공단": 10686,
      "혹시나": 10687,
      "청렴도": 10688,
      "초중고": 10689,
      "성년": 10690,
      "약대": 10691,
      "토끼": 10692,
      "ᆫ다는데": 10693,
      "관심사": 10694,
      "밀어붙이": 10695,
      "우즈베키스탄": 10696,
      "내성": 10697,
      "송치": 10698,
      "열사": 10699,
      "제3": 10700,
      "폐렴": 10701,
      "##의료": 10702,
      "공사장": 10703,
      "다채롭": 10704,
      "청문회": 10705,
      "동사무소": 10706,
      "들려오": 10707,
      "레코드": 10708,
      "순조": 10709,
      "재임": 10710,
      "175": 10711,
      "사무국": 10712,
      "거니": 10713,
      "괜히": 10714,
      "나들": 10715,
      "메디": 10716,
[...]
